<unk>	0
<s>	0
</s>	0
<pad>	0
▁t	-0
▁a	-1
he	-2
in	-3
re	-4
▁the	-5
▁s	-6
▁o	-7
er	-8
at	-9
▁w	-10
on	-11
nd	-12
▁c	-13
ou	-14
▁b	-15
is	-16
it	-17
▁f	-18
en	-19
es	-20
or	-21
▁p	-22
▁m	-23
ing	-24
ed	-25
an	-26
al	-27
ar	-28
▁to	-29
▁of	-30
▁d	-31
▁in	-32
▁h	-33
▁and	-34
▁th	-35
le	-36
as	-37
ic	-38
ion	-39
om	-40
ll	-41
▁n	-42
▁T	-43
▁l	-44
▁e	-45
ve	-46
ent	-47
▁I	-48
▁be	-49
st	-50
ot	-51
▁re	-52
▁g	-53
ly	-54
▁A	-55
▁y	-56
ow	-57
ct	-58
id	-59
se	-60
ut	-61
▁is	-62
▁S	-63
ro	-64
im	-65
▁you	-66
ay	-67
et	-68
▁u	-69
▁for	-70
ce	-71
ld	-72
▁on	-73
▁that	-74
ur	-75
ad	-76
ter	-77
ig	-78
▁he	-79
ver	-80
▁C	-81
▁st	-82
am	-83
ch	-84
ir	-85
▁it	-86
ation	-87
ith	-88
▁as	-89
ra	-90
il	-91
▁M	-92
▁The	-93
▁with	-94
ill	-95
▁W	-96
oo	-97
▁B	-98
▁ha	-99
▁an	-100
▁wh	-101
ke	-102
▁we	-103
▁or	-104
▁are	-105
▁P	-106
her	-107
if	-108
ge	-109
▁H	-110
▁con	-111
▁de	-112
▁(	-113
▁D	-114
ol	-115
ers	-116
pe	-117
▁not	-118
▁F	-119
ore	-120
▁sh	-121
ck	-122
ment	-123
▁se	-124
ate	-125
▁fr	-126
▁r	-127
ess	-128
ht	-129
▁su	-130
▁1	-131
▁R	-132
▁com	-133
ul	-134
▁at	-135
res	-136
ain	-137
th	-138
ould	-139
est	-140
▁have	-141
▁2	-142
▁ne	-143
▁E	-144
▁pro	-145
▁v	-146
us	-147
▁O	-148
pp	-149
ble	-150
ri	-151
ist	-152
▁by	-153
un	-154
▁ex	-155
▁N	-156
qu	-157
▁was	-158
all	-159
em	-160
ive	-161
▁from	-162
ant	-163
▁this	-164
▁le	-165
os	-166
▁can	-167
ie	-168
um	-169
and	-170
ies	-171
art	-172
ort	-173
▁L	-174
ity	-175
▁your	-176
ight	-177
▁G	-178
▁will	-179
iv	-180
▁me	-181
▁Th	-182
▁al	-183
op	-184
▁pl	-185
our	-186
▁do	-187
▁-	-188
ome	-189
▁k	-190
nt	-191
ard	-192
red	-193
ust	-194
ood	-195
▁so	-196
▁ch	-197
out	-198
od	-199
ak	-200
ast	-201
el	-202
rou	-203
ect	-204
ial	-205
ost	-206
▁all	-207
ap	-208
ide	-209
▁his	-210
▁whe	-211
▁U	-212
▁my	-213
ure	-214
▁ab	-215
▁but	-216
age	-217
ep	-218
ake	-219
▁wor	-220
ous	-221
▁sa	-222
ther	-223
ff	-224
gh	-225
ud	-226
ater	-227
ich	-228
ack	-229
ong	-230
▁dis	-231
▁they	-232
ine	-233
▁“	-234
▁j	-235
▁out	-236
▁In	-237
▁us	-238
▁J	-239
ag	-240
▁"	-241
ally	-242
ry	-243
ind	-244
▁has	-245
ac	-246
ear	-247
ions	-248
00	-249
one	-250
▁int	-251
ans	-252
▁their	-253
▁more	-254
ab	-255
ire	-256
▁Y	-257
▁up	-258
▁im	-259
▁man	-260
▁en	-261
▁one	-262
▁go	-263
ice	-264
per	-265
▁ad	-266
▁li	-267
are	-268
pl	-269
ated	-270
ord	-271
▁res	-272
pt	-273
▁cont	-274
ame	-275
able	-276
▁cl	-277
oc	-278
▁would	-279
act	-280
ue	-281
▁te	-282
ove	-283
ace	-284
iz	-285
▁pr	-286
own	-287
▁other	-288
▁she	-289
cc	-290
ime	-291
very	-292
▁who	-293
au	-294
▁if	-295
▁them	-296
▁which	-297
▁un	-298
▁K	-299
▁Wh	-300
▁And	-301
ook	-302
ance	-303
ber	-304
▁kn	-305
▁St	-306
▁no	-307
ick	-308
▁inc	-309
ress	-310
ign	-311
▁per	-312
▁than	-313
ven	-314
ical	-315
reat	-316
▁sp	-317
ip	-318
▁may	-319
▁pre	-320
▁comp	-321
▁ag	-322
▁3	-323
aster	-324
▁ar	-325
▁about	-326
ations	-327
▁were	-328
▁fe	-329
▁when	-330
▁off	-331
▁him	-332
int	-333
so	-334
▁It	-335
ru	-336
▁there	-337
ary	-338
▁pe	-339
ose	-340
▁some	-341
▁bl	-342
orm	-343
og	-344
ound	-345
▁like	-346
▁said	-347
ub	-348
▁part	-349
ere	-350
mer	-351
av	-352
ite	-353
ction	-354
we	-355
▁been	-356
ays	-357
▁qu	-358
ass	-359
▁what	-360
▁over	-361
ach	-362
▁tr	-363
ia	-364
▁any	-365
ence	-366
ase	-367
▁had	-368
▁her	-369
▁co	-370
port	-371
▁20	-372
ree	-373
▁spe	-374
ult	-375
▁fl	-376
ail	-377
ild	-378
ces	-379
▁time	-380
▁should	-381
ount	-382
nder	-383
▁ro	-384
▁If	-385
▁tw	-386
ile	-387
▁water	-388
▁po	-389
ings	-390
▁also	-391
ons	-392
▁thou	-393
▁our	-394
du	-395
ish	-396
ink	-397
▁into	-398
▁bec	-399
▁This	-400
irst	-401
ople	-402
ict	-403
▁sc	-404
ang	-405
ond	-406
oth	-407
▁need	-408
▁4	-409
vel	-410
ath	-411
▁am	-412
ition	-413
ors	-414
fter	-415
itt	-416
ious	-417
ause	-418
sel	-419
ning	-420
ens	-421
ark	-422
▁V	-423
▁comm	-424
▁Ch	-425
▁ra	-426
▁people	-427
).	-428
fore	-429
▁make	-430
ade	-431
▁work	-432
round	-433
oss	-434
▁app	-435
▁year	-436
▁use	-437
▁most	-438
ft	-439
▁rec	-440
▁sur	-441
ov	-442
▁He	-443
▁how	-444
▁its	-445
▁such	-446
ps	-447
▁bet	-448
▁As	-449
▁get	-450
▁To	-451
▁You	-452
▁att	-453
▁two	-454
▁these	-455
ory	-456
erv	-457
▁201	-458
▁know	-459
▁inf	-460
▁But	-461
ough	-462
▁sm	-463
▁new	-464
les	-465
==	-466
ise	-467
igh	-468
▁tra	-469
▁first	-470
▁des	-471
ness	-472
ents	-473
▁well	-474
other	-475
ible	-476
ne	-477
▁under	-478
▁only	-479
▁fo	-480
▁then	-481
..	-482
▁We	-483
cial	-484
ates	-485
▁good	-486
▁act	-487
▁after	-488
▁acc	-489
uch	-490
lic	-491
llow	-492
ock	-493
▁could	-494
enc	-495
iff	-496
▁just	-497
ities	-498
urn	-499
row	-500
▁pol	-501
hing	-502
▁5	-503
hed	-504
▁bu	-505
end	-506
ian	-507
old	-508
▁hand	-509
▁cons	-510
▁again	-511
lud	-512
ual	-513
li	-514
▁For	-515
ational	-516
ull	-517
▁ind	-518
▁where	-519
▁ev	-520
amp	-521
ments	-522
hen	-523
ffect	-524
▁rem	-525
aw	-526
▁now	-527
ily	-528
ife	-529
lter	-530
rough	-531
▁supp	-532
▁see	-533
ob	-534
▁br	-535
▁ke	-536
ks	-537
▁long	-538
▁disaster	-539
vers	-540
ating	-541
▁pers	-542
ather	-543
▁did	-544
ph	-545
self	-546
▁end	-547
▁ear	-548
▁back	-549
ures	-550
▁imp	-551
ew	-552
tern	-553
hes	-554
▁That	-555
▁Re	-556
▁ass	-557
▁dec	-558
▁war	-559
▁through	-560
ident	-561
▁sy	-562
▁19	-563
ility	-564
uring	-565
tain	-566
▁even	-567
▁much	-568
▁too	-569
oy	-570
ool	-571
▁down	-572
▁How	-573
▁play	-574
▁add	-575
cess	-576
wn	-577
▁includ	-578
▁many	-579
ave	-580
▁shelter	-581
▁hel	-582
--	-583
▁very	-584
iss	-585
▁sec	-586
ject	-587
ower	-588
▁min	-589
.”	-590
▁way	-591
▁What	-592
ful	-593
▁diff	-594
▁cr	-595
pect	-596
ms	-597
get	-598
ren	-599
ange	-600
▁because	-601
ght	-602
lect	-603
ced	-604
▁must	-605
▁rel	-606
als	-607
aking	-608
ib	-609
▁.	-610
ient	-611
▁En	-612
te	-613
▁em	-614
▁before	-615
▁every	-616
▁Un	-617
air	-618
ract	-619
▁An	-620
▁look	-621
▁Ex	-622
man	-623
▁say	-624
▁take	-625
▁prov	-626
io	-627
▁aw	-628
ting	-629
▁av	-630
▁inv	-631
ty	-632
ants	-633
ever	-634
▁ob	-635
▁being	-636
ific	-637
ont	-638
▁pres	-639
▁bel	-640
▁think	-641
ars	-642
▁used	-643
vern	-644
ublic	-645
▁sl	-646
▁def	-647
AL	-648
ually	-649
ied	-650
ason	-651
▁Be	-652
0.	-653
▁those	-654
▁shall	-655
▁made	-656
▁person	-657
▁poss	-658
ative	-659
),	-660
▁reg	-661
▁help	-662
ener	-663
ix	-664
ys	-665
▁let	-666
rib	-667
▁follow	-668
▁wr	-669
▁ent	-670
▁requ	-671
▁thy	-672
ody	-673
▁–	-674
▁—	-675
ell	-676
day	-677
▁lar	-678
▁here	-679
▁sign	-680
its	-681
▁6	-682
▁str	-683
ited	-684
▁point	-685
,”	-686
▁inst	-687
lear	-688
up	-689
▁does	-690
▁years	-691
ward	-692
▁high	-693
iew	-694
▁There	-695
▁call	-696
▁sim	-697
▁air	-698
ular	-699
▁set	-700
ased	-701
▁Al	-702
gan	-703
▁prot	-704
ween	-705
▁count	-706
ner	-707
ady	-708
ince	-709
ency	-710
▁ins	-711
oun	-712
omet	-713
▁met	-714
▁effect	-715
▁sk	-716
▁come	-717
▁op	-718
▁sub	-719
▁own	-720
▁car	-721
ared	-722
▁show	-723
imes	-724
▁When	-725
."	-726
▁ext	-727
▁exp	-728
gr	-729
▁ph	-730
▁mon	-731
ts	-732
▁med	-733
▁against	-734
olog	-735
meric	-736
ins	-737
▁resp	-738
stem	-739
▁between	-740
atch	-741
▁food	-742
▁don	-743
▁loc	-744
▁produ	-745
▁They	-746
▁still	-747
akes	-748
ines	-749
▁Se	-750
vent	-751
viv	-752
arch	-753
land	-754
▁ac	-755
▁find	-756
▁right	-757
▁Ar	-758
ics	-759
▁De	-760
ump	-761
ros	-762
xt	-763
▁life	-764
▁day	-765
▁commun	-766
▁head	-767
▁ed	-768
▁keep	-769
ER	-770
▁govern	-771
▁Sh	-772
▁Q	-773
led	-774
und	-775
▁world	-776
▁Americ	-777
▁char	-778
▁$	-779
▁last	-780
▁report	-781
ved	-782
▁ap	-783
▁dire	-784
▁want	-785
▁small	-786
▁state	-787
ters	-788
ives	-789
ues	-790
▁col	-791
▁best	-792
▁dist	-793
iet	-794
med	-795
▁che	-796
orn	-797
▁gu	-798
▁place	-799
▁7	-800
form	-801
▁great	-802
▁ser	-803
▁Com	-804
▁8	-805
IN	-806
▁bo	-807
▁during	-808
▁import	-809
▁plan	-810
▁thee	-811
AN	-812
▁disc	-813
▁Tr	-814
uth	-815
ork	-816
▁both	-817
less	-818
velop	-819
▁three	-820
▁fall	-821
▁[	-822
▁same	-823
▁conf	-824
▁while	-825
▁each	-826
▁around	-827
▁start	-828
ams	-829
ution	-830
▁ty	-831
▁system	-832
▁lead	-833
,"	-834
nce	-835
▁Is	-836
ouse	-837
▁build	-838
alk	-839
inal	-840
▁fi	-841
▁unt	-842
▁cap	-843
▁So	-844
here	-845
▁body	-846
▁sw	-847
▁det	-848
▁num	-849
alth	-850
====	-851
▁differe	-852
ves	-853
uc	-854
any	-855
▁gr	-856
com	-857
▁fact	-858
▁ma	-859
▁Fr	-860
ense	-861
▁found	-862
pend	-863
▁area	-864
▁200	-865
ON	-866
▁mem	-867
▁rad	-868
ience	-869
//	-870
ature	-871
ruct	-872
▁trans	-873
▁pat	-874
ger	-875
ric	-876
▁open	-877
▁ter	-878
▁inter	-879
ield	-880
▁fam	-881
▁sit	-882
ute	-883
cent	-884
▁stand	-885
▁possible	-886
▁gra	-887
ving	-888
▁stud	-889
▁cent	-890
gg	-891
der	-892
cept	-893
▁large	-894
▁ref	-895
▁enough	-896
▁partic	-897
▁New	-898
▁Rep	-899
▁cour	-900
ined	-901
▁gener	-902
▁government	-903
▁With	-904
▁inform	-905
▁few	-906
ten	-907
▁occ	-908
ef	-909
▁pur	-910
▁love	-911
▁develop	-912
▁going	-913
▁offic	-914
▁i	-915
ee	-916
▁wee	-917
EN	-918
▁somet	-919
▁lord	-920
ross	-921
▁grou	-922
▁main	-923
▁hum	-924
▁prep	-925
▁without	-926
ize	-927
ittle	-928
▁never	-929
atur	-930
ists	-931
▁fire	-932
▁support	-933
▁z	-934
▁give	-935
ank	-936
▁1.	-937
▁put	-938
ash	-939
ote	-940
▁serv	-941
hip	-942
▁saf	-943
▁home	-944
▁eas	-945
▁dr	-946
://	-947
▁another	-948
▁away	-949
▁exper	-950
▁Cl	-951
▁art	-952
▁Br	-953
ages	-954
cer	-955
▁10	-956
▁At	-957
▁vict	-958
▁might	-959
▁9	-960
▁care	-961
▁wom	-962
ple	-963
ately	-964
agement	-965
ax	-966
ized	-967
▁important	-968
ok	-969
▁appro	-970
aterial	-971
▁cur	-972
▁mod	-973
isaster	-974
▁move	-975
ider	-976
▁Pl	-977
▁less	-978
▁surviv	-979
▁run	-980
ale	-981
ither	-982
uation	-983
▁es	-984
ases	-985
▁law	-986
▁US	-987
con	-988
ered	-989
▁better	-990
ism	-991
▁Ad	-992
▁rep	-993
▁protect	-994
ides	-995
▁little	-996
20	-997
▁avail	-998
▁ho	-999
▁expl	-1000
▁rest	-1001
▁const	-1002
▁bre	-1003
ots	-1004
merg	-1005
▁public	-1006
▁My	-1007
▁level	-1008
ES	-1009
ret	-1010
uss	-1011
▁result	-1012
▁Le	-1013
▁adv	-1014
ices	-1015
▁ret	-1016
▁tem	-1017
▁No	-1018
▁hour	-1019
▁material	-1020
co	-1021
▁happ	-1022
▁power	-1023
ier	-1024
osed	-1025
pr	-1026
▁form	-1027
ned	-1028
ets	-1029
▁Do	-1030
▁cre	-1031
▁direct	-1032
cl	-1033
ically	-1034
▁top	-1035
▁using	-1036
▁ground	-1037
az	-1038
atter	-1039
iend	-1040
AR	-1041
▁areas	-1042
ways	-1043
▁hard	-1044
▁Pro	-1045
▁near	-1046
att	-1047
▁information	-1048
▁incre	-1049
▁comple	-1050
▁until	-1051
▁dra	-1052
▁team	-1053
▁organ	-1054
▁game	-1055
oid	-1056
▁fun	-1057
▁pri	-1058
▁spec	-1059
▁'	-1060
iven	-1061
ted	-1062
▁appe	-1063
▁word	-1064
ential	-1065
▁leg	-1066
▁blood	-1067
▁far	-1068
▁proble	-1069
rem	-1070
ards	-1071
000	-1072
ision	-1073
ired	-1074
ining	-1075
ison	-1076
▁available	-1077
▁death	-1078
ah	-1079
The	-1080
▁heart	-1081
outh	-1082
ex	-1083
▁friend	-1084
▁ey	-1085
▁allow	-1086
▁contin	-1087
chn	-1088
▁victim	-1089
▁cor	-1090
not	-1091
▁var	-1092
▁full	-1093
▁real	-1094
▁gl	-1095
▁ca	-1096
illion	-1097
▁says	-1098
▁side	-1099
▁mark	-1100
ush	-1101
▁pass	-1102
▁inj	-1103
iation	-1104
▁yet	-1105
ries	-1106
▁within	-1107
ling	-1108
iving	-1109
ured	-1110
▁cut	-1111
▁tell	-1112
▁light	-1113
▁val	-1114
▁night	-1115
mitt	-1116
▁try	-1117
▁different	-1118
▁oper	-1119
▁cond	-1120
▁equ	-1121
ources	-1122
bers	-1123
▁since	-1124
ised	-1125
▁Enter	-1126
▁These	-1127
▁second	-1128
view	-1129
▁fil	-1130
utes	-1131
▁child	-1132
▁iss	-1133
▁ris	-1134
ames	-1135
▁case	-1136
...	-1137
▁sn	-1138
▁el	-1139
▁read	-1140
▁rele	-1141
▁She	-1142
__	-1143
▁upon	-1144
▁contain	-1145
ury	-1146
▁belie	-1147
▁least	-1148
▁process	-1149
▁ve	-1150
UR	-1151
▁sure	-1152
▁‘	-1153
TI	-1154
▁(1	-1155
bs	-1156
br	-1157
min	-1158
▁following	-1159
▁X	-1160
my	-1161
▁Or	-1162
els	-1163
▁contro	-1164
▁month	-1165
ww	-1166
iness	-1167
side	-1168
chool	-1169
ott	-1170
▁men	-1171
▁Z	-1172
▁maj	-1173
of	-1174
anc	-1175
ivers	-1176
ems	-1177
artment	-1178
be	-1179
▁On	-1180
ged	-1181
▁mov	-1182
▁pos	-1183
ption	-1184
▁turn	-1185
▁health	-1186
▁cover	-1187
▁attack	-1188
uthor	-1189
▁hold	-1190
▁clear	-1191
▁progr	-1192
-1	-1193
ug	-1194
▁Ill	-1195
▁quest	-1196
unt	-1197
ample	-1198
htt	-1199
ode	-1200
▁sever	-1201
pped	-1202
ats	-1203
▁next	-1204
▁However	-1205
▁kill	-1206
ital	-1207
ability	-1208
stand	-1209
▁number	-1210
▁sir	-1211
rent	-1212
ried	-1213
▁Sc	-1214
▁earth	-1215
▁really	-1216
▁things	-1217
▁bra	-1218
▁beh	-1219
▁heat	-1220
▁dep	-1221
▁four	-1222
▁including	-1223
vious	-1224
mergency	-1225
▁2.	-1226
▁Ind	-1227
▁opp	-1228
▁All	-1229
▁par	-1230
▁land	-1231
▁«	-1232
ently	-1233
▁press	-1234
anger	-1235
to	-1236
omb	-1237
▁rece	-1238
▁gre	-1239
▁often	-1240
ably	-1241
▁something	-1242
▁Pr	-1243
the	-1244
thing	-1245
▁mil	-1246
▁dam	-1247
ording	-1248
orth	-1249
used	-1250
▁done	-1251
▁mar	-1252
▁wind	-1253
ration	-1254
▁means	-1255
▁design	-1256
alf	-1257
▁pot	-1258
▁free	-1259
▁post	-1260
▁redu	-1261
▁0	-1262
▁dead	-1263
gy	-1264
▁12	-1265
▁big	-1266
cu	-1267
▁told	-1268
▁Dep	-1269
▁15	-1270
▁21	-1271
▁old	-1272
▁country	-1273
pecial	-1274
oh	-1275
▁times	-1276
▁left	-1277
▁cause	-1278
▁techn	-1279
ertain	-1280
ember	-1281
▁become	-1282
▁Bl	-1283
▁Man	-1284
▁ask	-1285
oms	-1286
▁able	-1287
hod	-1288
iron	-1289
▁several	-1290
ffic	-1291
▁dem	-1292
▁local	-1293
▁Trump	-1294
ert	-1295
▁Mar	-1296
▁ide	-1297
▁group	-1298
ird	-1299
ances	-1300
ished	-1301
▁meas	-1302
itions	-1303
ention	-1304
ived	-1305
▁short	-1306
itical	-1307
▁prevent	-1308
▁18	-1309
onse	-1310
uck	-1311
,000	-1312
▁thing	-1313
iting	-1314
▁making	-1315
▁anim	-1316
▁minutes	-1317
▁beg	-1318
▁One	-1319
▁grow	-1320
ead	-1321
conom	-1322
▁bro	-1323
▁list	-1324
ator	-1325
▁days	-1326
▁above	-1327
▁activ	-1328
▁bas	-1329
▁Res	-1330
▁speak	-1331
US	-1332
▁tre	-1333
alt	-1334
▁est	-1335
▁pract	-1336
VI	-1337
▁major	-1338
▁example	-1339
aring	-1340
▁needs	-1341
▁Disaster	-1342
▁fin	-1343
▁fore	-1344
▁kind	-1345
ify	-1346
most	-1347
▁hon	-1348
▁given	-1349
ivid	-1350
▁feel	-1351
▁remain	-1352
▁Can	-1353
▁By	-1354
▁name	-1355
▁Some	-1356
▁line	-1357
▁survival	-1358
▁test	-1359
aim	-1360
▁likely	-1361
▁ever	-1362
▁cannot	-1363
OR	-1364
aps	-1365
▁dev	-1366
▁treat	-1367
▁always	-1368
atural	-1369
oney	-1370
▁sol	-1371
ata	-1372
▁lot	-1373
▁Con	-1374
▁quick	-1375
ization	-1376
▁percent	-1377
▁thought	-1378
▁lear	-1379
▁community	-1380
1.	-1381
▁book	-1382
ief	-1383
▁prom	-1384
iety	-1385
ng	-1386
▁pop	-1387
erest	-1388
▁live	-1389
crib	-1390
▁hath	-1391
▁Of	-1392
▁comes	-1393
▁though	-1394
arm	-1395
ource	-1396
▁swe	-1397
▁news	-1398
▁bus	-1399
▁family	-1400
▁why	-1401
AS	-1402
ills	-1403
▁mean	-1404
▁human	-1405
▁season	-1406
way	-1407
ior	-1408
▁23	-1409
▁intern	-1410
▁=	-1411
aken	-1412
line	-1413
ister	-1414
eng	-1415
▁below	-1416
ape	-1417
▁invest	-1418
▁United	-1419
▁vis	-1420
▁lim	-1421
▁*	-1422
ral	-1423
▁Ph	-1424
.,	-1425
▁others	-1426
▁national	-1427
rop	-1428
▁Why	-1429
ology	-1430
▁proper	-1431
raph	-1432
▁necess	-1433
ready	-1434
rict	-1435
lf	-1436
▁camp	-1437
▁fac	-1438
▁invol	-1439
▁school	-1440
irc	-1441
▁low	-1442
gether	-1443
▁together	-1444
▁include	-1445
atic	-1446
▁ele	-1447
▁management	-1448
▁close	-1449
▁leave	-1450
ional	-1451
ulation	-1452
▁danger	-1453
▁&	-1454
oint	-1455
▁called	-1456
▁Your	-1457
▁common	-1458
ING	-1459
ton	-1460
2.	-1461
▁3.	-1462
▁face	-1463
▁method	-1464
▁Now	-1465
▁once	-1466
ane	-1467
▁official	-1468
AT	-1469
aves	-1470
▁rese	-1471
▁known	-1472
▁Department	-1473
▁hours	-1474
ounds	-1475
▁along	-1476
▁<	-1477
▁prof	-1478
pecially	-1479
▁mus	-1480
▁strong	-1481
iqu	-1482
▁project	-1483
▁company	-1484
▁true	-1485
▁reason	-1486
▁later	-1487
▁cost	-1488
▁avoid	-1489
▁emergency	-1490
▁cloth	-1491
▁change	-1492
▁father	-1493
by	-1494
▁American	-1495
▁pay	-1496
▁already	-1497
ified	-1498
▁cold	-1499
ones	-1500
▁pie	-1501
viron	-1502
▁order	-1503
ls	-1504
▁require	-1505
ene	-1506
ploy	-1507
une	-1508
▁plac	-1509
▁stick	-1510
▁past	-1511
10	-1512
ination	-1513
▁safe	-1514
▁house	-1515
▁makes	-1516
▁author	-1517
▁mind	-1518
▁consider	-1519
▁Tw	-1520
▁Not	-1521
▁got	-1522
ering	-1523
https	-1524
ium	-1525
▁week	-1526
▁temper	-1527
oke	-1528
ilar	-1529
.)	-1530
▁di	-1531
▁king	-1532
▁usually	-1533
ened	-1534
▁coun	-1535
▁▄	-1536
medi	-1537
mitted	-1538
itional	-1539
org	-1540
▁dry	-1541
▁women	-1542
▁certain	-1543
▁sing	-1544
pping	-1545
▁typ	-1546
▁interest	-1547
ows	-1548
amm	-1549
af	-1550
▁Go	-1551
▁May	-1552
▁God	-1553
▁ple	-1554
ched	-1555
urther	-1556
========	-1557
▁After	-1558
▁particular	-1559
igation	-1560
▁risk	-1561
uclear	-1562
ina	-1563
read	-1564
though	-1565
▁police	-1566
erm	-1567
▁econom	-1568
▁current	-1569
▁provide	-1570
▁understand	-1571
▁skin	-1572
icult	-1573
ividual	-1574
3.	-1575
fort	-1576
▁win	-1577
▁stay	-1578
▁ident	-1579
▁occur	-1580
▁perform	-1581
uro	-1582
ided	-1583
ality	-1584
▁fa	-1585
ories	-1586
▁event	-1587
ec	-1588
▁hig	-1589
▁break	-1590
▁deal	-1591
▁pain	-1592
▁expect	-1593
for	-1594
ored	-1595
▁wood	-1596
▁having	-1597
▁hot	-1598
selves	-1599
▁response	-1600
let	-1601
▁came	-1602
▁elect	-1603
▁hands	-1604
▁nothing	-1605
▁chang	-1606
▁threat	-1607
▁Ob	-1608
▁Sp	-1609
sw	-1610
ilt	-1611
▁SUR	-1612
▁stra	-1613
▁money	-1614
over	-1615
▁million	-1616
overed	-1617
4.	-1618
▁dri	-1619
▁impro	-1620
▁story	-1621
ators	-1622
▁half	-1623
▁present	-1624
▁Page	-1625
▁loss	-1626
▁view	-1627
▁especially	-1628
▁fear	-1629
▁\	-1630
IS	-1631
apter	-1632
▁polic	-1633
▁bur	-1634
▁fair	-1635
▁bring	-1636
▁concer	-1637
augh	-1638
▁course	-1639
sh	-1640
▁meet	-1641
acter	-1642
wh	-1643
▁situation	-1644
inc	-1645
▁er	-1646
▁MAN	-1647
▁bit	-1648
▁ill	-1649
ccess	-1650
▁weap	-1651
▁:	-1652
work	-1653
idence	-1654
▁amount	-1655
▁circ	-1656
oot	-1657
▁talk	-1658
▁individual	-1659
UAL	-1660
ges	-1661
▁data	-1662
▁ann	-1663
▁orig	-1664
ik	-1665
▁non	-1666
imate	-1667
▁either	-1668
▁hear	-1669
▁0.	-1670
▁Sy	-1671
ilities	-1672
ids	-1673
ama	-1674
▁Then	-1675
▁environ	-1676
6.	-1677
cks	-1678
▁hy	-1679
idd	-1680
itive	-1681
VAL	-1682
▁seen	-1683
▁lay	-1684
▁claim	-1685
like	-1686
▁Eng	-1687
ring	-1688
▁class	-1689
ox	-1690
eds	-1691
ued	-1692
7.	-1693
lean	-1694
▁States	-1695
▁young	-1696
▁return	-1697
▁MANUAL	-1698
▁Pre	-1699
▁action	-1700
aid	-1701
oon	-1702
▁prepared	-1703
▁CO	-1704
▁effective	-1705
▁Te	-1706
▁difficult	-1707
▁Gu	-1708
pro	-1709
▁special	-1710
irt	-1711
▁Comm	-1712
▁stre	-1713
▁rather	-1714
▁natural	-1715
76	-1716
▁burn	-1717
ended	-1718
▁tri	-1719
▁question	-1720
▁Ke	-1721
▁ste	-1722
▁Army	-1723
▁immedi	-1724
mb	-1725
ron	-1726
▁sent	-1727
gle	-1728
nel	-1729
▁matter	-1730
▁stri	-1731
▁affect	-1732
urity	-1733
▁His	-1734
▁almost	-1735
ands	-1736
▁Im	-1737
ails	-1738
empt	-1739
▁sle	-1740
▁working	-1741
oad	-1742
vert	-1743
▁heav	-1744
ians	-1745
vere	-1746
▁position	-1747
▁,	-1748
▁SURVI	-1749
▁members	-1750
pos	-1751
▁job	-1752
reme	-1753
▁breat	-1754
▁white	-1755
▁whether	-1756
eding	-1757
▁business	-1758
face	-1759
lish	-1760
▁hist	-1761
▁nuclear	-1762
▁building	-1763
▁Car	-1764
▁feet	-1765
▁fallout	-1766
ourn	-1767
eral	-1768
▁assist	-1769
▁taken	-1770
▁respons	-1771
▁yourself	-1772
iod	-1773
▁eff	-1774
▁4.	-1775
▁bar	-1776
oose	-1777
▁step	-1778
ission	-1779
▁SURVIVAL	-1780
oice	-1781
▁Joh	-1782
▁30	-1783
itor	-1784
▁Let	-1785
▁early	-1786
▁deep	-1787
▁--	-1788
oor	-1789
ibility	-1790
▁fight	-1791
▁general	-1792
▁AR	-1793
▁foot	-1794
uff	-1795
ern	-1796
ients	-1797
ection	-1798
ensive	-1799
▁indic	-1800
▁York	-1801
▁Fl	-1802
▁Use	-1803
▁Ass	-1804
▁product	-1805
▁necessary	-1806
▁Don	-1807
▁type	-1808
iter	-1809
▁inside	-1810
▁eyes	-1811
▁mine	-1812
▁Will	-1813
orse	-1814
ully	-1815
▁ant	-1816
▁radiation	-1817
ney	-1818
▁problem	-1819
▁among	-1820
▁five	-1821
▁similar	-1822
▁children	-1823
iver	-1824
▁doesn	-1825
▁social	-1826
▁medical	-1827
ches	-1828
▁War	-1829
▁city	-1830
▁took	-1831
▁complete	-1832
▁further	-1833
▁words	-1834
▁tar	-1835
▁however	-1836
cher	-1837
book	-1838
ster	-1839
----	-1840
eter	-1841
▁plant	-1842
▁red	-1843
▁init	-1844
▁State	-1845
ike	-1846
▁cra	-1847
▁pressure	-1848
par	-1849
aper	-1850
▁Euro	-1851
▁effects	-1852
▁AN	-1853
▁aid	-1854
▁prob	-1855
▁due	-1856
▁control	-1857
orld	-1858
▁While	-1859
▁fre	-1860
▁field	-1861
iversity	-1862
We	-1863
▁sun	-1864
▁John	-1865
▁across	-1866
▁environment	-1867
▁Dem	-1868
▁plants	-1869
▁therefore	-1870
uture	-1871
ires	-1872
▁Republic	-1873
iol	-1874
ony	-1875
itch	-1876
▁wild	-1877
▁serious	-1878
▁else	-1879
▁outside	-1880
▁dou	-1881
▁believe	-1882
5.	-1883
ety	-1884
▁Most	-1885
▁didn	-1886
▁record	-1887
hy	-1888
▁Here	-1889
▁drink	-1890
inted	-1891
▁First	-1892
leg	-1893
arent	-1894
▁actually	-1895
▁period	-1896
ying	-1897
▁Even	-1898
▁months	-1899
▁friends	-1900
▁mor	-1901
▁eat	-1902
por	-1903
▁Cal	-1904
▁training	-1905
erence	-1906
▁Pol	-1907
▁political	-1908
▁TH	-1909
▁ben	-1910
▁App	-1911
▁deb	-1912
▁points	-1913
▁Am	-1914
aven	-1915
▁tot	-1916
▁comb	-1917
▁radio	-1918
▁success	-1919
ils	-1920
aged	-1921
▁fund	-1922
▁conditions	-1923
▁Des	-1924
▁according	-1925
▁seem	-1926
▁object	-1927
ivil	-1928
▁dest	-1929
▁poor	-1930
▁describ	-1931
AP	-1932
ening	-1933
▁National	-1934
▁living	-1935
rel	-1936
ergy	-1937
▁begin	-1938
ley	-1939
▁199	-1940
▁creat	-1941
aff	-1942
▁quickly	-1943
▁Chr	-1944
);	-1945
ror	-1946
fully	-1947
▁development	-1948
ising	-1949
lement	-1950
11	-1951
ocr	-1952
▁Ne	-1953
▁Where	-1954
▁ble	-1955
▁Well	-1956
▁itself	-1957
ask	-1958
▁cook	-1959
▁struct	-1960
ift	-1961
▁exist	-1962
▁patient	-1963
gu	-1964
erc	-1965
▁won	-1966
▁haz	-1967
▁phys	-1968
▁priv	-1969
▁ur	-1970
▁potential	-1971
▁stop	-1972
▁experience	-1973
▁imm	-1974
▁fail	-1975
▁bott	-1976
gress	-1977
▁depend	-1978
IR	-1979
▁future	-1980
It	-1981
▁Col	-1982
▁blast	-1983
▁14	-1984
▁und	-1985
▁problems	-1986
ait	-1987
▁Europe	-1988
▁toward	-1989
icle	-1990
omes	-1991
▁Sec	-1992
ruction	-1993
ung	-1994
▁abs	-1995
▁whole	-1996
▁president	-1997
▁tax	-1998
▁entire	-1999
sc	-2000
ctor	-2001
▁access	-2002
▁Ed	-2003
▁thus	-2004
entle	-2005
▁norm	-2006
▁age	-2007
▁sus	-2008
eunt	-2009
▁infl	-2010
go	-2011
▁saw	-2012
ague	-2013
▁vol	-2014
▁worth	-2015
▁longer	-2016
aign	-2017
▁ens	-2018
▁carry	-2019
▁site	-2020
lling	-2021
▁warning	-2022
▁enc	-2023
▁account	-2024
▁maintain	-2025
oul	-2026
▁self	-2027
▁soon	-2028
▁wound	-2029
▁11	-2030
▁watch	-2031
▁Exeunt	-2032
rest	-2033
aving	-2034
▁pick	-2035
itary	-2036
rench	-2037
▁Good	-2038
ites	-2039
▁cal	-2040
▁damage	-2041
atures	-2042
▁resources	-2043
▁answ	-2044
▁getting	-2045
sy	-2046
tt	-2047
▁previous	-2048
ggest	-2049
▁effort	-2050
ogn	-2051
▁shelters	-2052
ply	-2053
▁Med	-2054
▁plans	-2055
light	-2056
▁wide	-2057
▁sum	-2058
▁>	-2059
▁(2	-2060
▁sold	-2061
▁black	-2062
▁attempt	-2063
▁vers	-2064
▁materials	-2065
▁Co	-2066
ological	-2067
▁Pres	-2068
▁reported	-2069
ipment	-2070
▁countries	-2071
▁court	-2072
▁employ	-2073
▁himself	-2074
▁hope	-2075
▁doing	-2076
astic	-2077
▁vot	-2078
▁source	-2079
▁net	-2080
▁apply	-2081
▁clean	-2082
▁Min	-2083
mber	-2084
▁21-	-2085
▁impact	-2086
fl	-2087
▁suggest	-2088
▁permitted	-2089
50	-2090
ery	-2091
▁North	-2092
▁taking	-2093
▁16	-2094
rought	-2095
▁based	-2096
use	-2097
▁Sur	-2098
▁lost	-2099
▁et	-2100
head	-2101
resh	-2102
▁tou	-2103
▁tool	-2104
TER	-2105
fer	-2106
▁six	-2107
▁needed	-2108
▁Exit	-2109
▁fish	-2110
▁media	-2111
▁eng	-2112
▁discuss	-2113
▁players	-2114
oved	-2115
▁log	-2116
▁code	-2117
▁single	-2118
▁themselves	-2119
▁zomb	-2120
▁space	-2121
▁behind	-2122
EL	-2123
▁block	-2124
▁Which	-2125
▁appear	-2126
▁higher	-2127
ED	-2128
ences	-2129
cle	-2130
▁cool	-2131
▁warm	-2132
ctions	-2133
▁lower	-2134
▁wall	-2135
▁son	-2136
▁FM	-2137
▁base	-2138
▁character	-2139
OL	-2140
ald	-2141
eed	-2142
▁aut	-2143
urs	-2144
▁Pe	-2145
itter	-2146
▁bad	-2147
umb	-2148
▁ess	-2149
▁anal	-2150
▁mult	-2151
pose	-2152
▁Was	-2153
lished	-2154
yle	-2155
▁measures	-2156
aut	-2157
▁draw	-2158
▁prim	-2159
MY	-2160
▁specific	-2161
ID	-2162
▁band	-2163
▁contact	-2164
year	-2165
▁key	-2166
iding	-2167
TION	-2168
▁pull	-2169
▁went	-2170
rinted	-2171
▁simple	-2172
lt	-2173
ples	-2174
IC	-2175
ober	-2176
▁room	-2177
▁clothing	-2178
▁5.	-2179
▁sea	-2180
▁indust	-2181
▁required	-2182
▁repl	-2183
▁sleep	-2184
▁check	-2185
▁issue	-2186
▁233	-2187
▁enem	-2188
▁conn	-2189
▁Intern	-2190
▁anything	-2191
▁campaign	-2192
▁Cent	-2193
▁aff	-2194
▁Dr	-2195
cing	-2196
rew	-2197
▁SC	-2198
ederal	-2199
▁equipment	-2200
30	-2201
acy	-2202
▁easily	-2203
▁surface	-2204
▁function	-2205
▁Who	-2206
▁assess	-2207
▁various	-2208
▁signific	-2209
▁dig	-2210
▁cases	-2211
▁21-76	-2212
▁benef	-2213
▁ARMY	-2214
▁former	-2215
▁leaves	-2216
▁organiz	-2217
▁someone	-2218
▁Reprinted	-2219
▁brother	-2220
▁extreme	-2221
ledge	-2222
▁House	-2223
enn	-2224
▁Inst	-2225
▁pack	-2226
▁market	-2227
▁Mc	-2228
play	-2229
▁America	-2230
app	-2231
▁ban	-2232
▁lack	-2233
▁viol	-2234
▁ways	-2235
▁policy	-2236
▁walk	-2237
8.	-2238
omm	-2239
cious	-2240
▁sound	-2241
▁{	-2242
osp	-2243
lies	-2244
▁squ	-2245
▁Come	-2246
▁woman	-2247
duct	-2248
asing	-2249
encies	-2250
uses	-2251
▁film	-2252
▁repres	-2253
▁idea	-2254
dd	-2255
▁port	-2256
▁study	-2257
ales	-2258
▁vide	-2259
▁weather	-2260
ST	-2261
▁dise	-2262
▁communic	-2263
arr	-2264
▁x	-2265
www	-2266
▁parts	-2267
ball	-2268
fect	-2269
▁lab	-2270
▁Cons	-2271
▁Serv	-2272
▁target	-2273
ental	-2274
imum	-2275
▁From	-2276
▁energy	-2277
▁nor	-2278
aun	-2279
eth	-2280
oura	-2281
▁temperature	-2282
back	-2283
ached	-2284
▁items	-2285
▁Su	-2286
attle	-2287
▁soft	-2288
▁Part	-2289
▁evac	-2290
▁rate	-2291
oe	-2292
▁heavy	-2293
▁create	-2294
▁gentle	-2295
▁wrong	-2296
▁cy	-2297
▁pray	-2298
▁snow	-2299
irm	-2300
▁Russ	-2301
▁mess	-2302
ought	-2303
▁programs	-2304
come	-2305
▁deg	-2306
▁music	-2307
ler	-2308
▁Ag	-2309
▁mis	-2310
▁suff	-2311
▁myself	-2312
▁17	-2313
▁ready	-2314
de	-2315
▁review	-2316
▁service	-2317
▁World	-2318
▁Democr	-2319
▁nature	-2320
▁trying	-2321
ateg	-2322
asons	-2323
overy	-2324
▁slow	-2325
▁increase	-2326
ius	-2327
▁easy	-2328
▁store	-2329
▁today	-2330
minist	-2331
▁whose	-2332
rap	-2333
ograph	-2334
set	-2335
ume	-2336
pects	-2337
▁mother	-2338
ann	-2339
mpt	-2340
▁Act	-2341
▁cross	-2342
▁determ	-2343
▁research	-2344
▁subject	-2345
▁security	-2346
▁Mr	-2347
▁games	-2348
ze	-2349
ude	-2350
▁Sm	-2351
▁sex	-2352
9.	-2353
▁dangerous	-2354
equ	-2355
▁Rem	-2356
▁original	-2357
▁phot	-2358
▁mouth	-2359
▁thous	-2360
▁Management	-2361
▁series	-2362
▁simply	-2363
▁leaders	-2364
Th	-2365
pper	-2366
▁ability	-2367
▁Che	-2368
ips	-2369
▁foc	-2370
▁reach	-2371
▁weeks	-2372
▁bag	-2373
▁civil	-2374
▁chance	-2375
now	-2376
▁fav	-2377
▁tis	-2378
▁miss	-2379
olution	-2380
▁groups	-2381
ging	-2382
▁counter	-2383
reen	-2384
▁piece	-2385
▁sweet	-2386
▁international	-2387
gest	-2388
▁poles	-2389
rief	-2390
▁University	-2391
▁#	-2392
____	-2393
▁heard	-2394
▁II	-2395
▁added	-2396
▁learn	-2397
▁fig	-2398
▁quite	-2399
▁third	-2400
▁military	-2401
su	-2402
oles	-2403
ural	-2404
▁hide	-2405
ression	-2406
▁protection	-2407
ises	-2408
▁President	-2409
▁host	-2410
erve	-2411
iated	-2412
▁master	-2413
▁movement	-2414
▁significant	-2415
amed	-2416
itation	-2417
val	-2418
▁range	-2419
▁travel	-2420
▁weight	-2421
▁Her	-2422
▁Obama	-2423
▁asked	-2424
▁started	-2425
▁planning	-2426
unity	-2427
▁More	-2428
▁profess	-2429
▁Many	-2430
▁mass	-2431
▁pret	-2432
▁injury	-2433
▁Other	-2434
ken	-2435
atory	-2436
▁cell	-2437
▁tend	-2438
oll	-2439
▁Up	-2440
▁mom	-2441
▁force	-2442
▁decision	-2443
gs	-2444
oud	-2445
oogle	-2446
▁prior	-2447
▁evidence	-2448
▁Aust	-2449
▁looking	-2450
uel	-2451
▁13	-2452
amin	-2453
▁value	-2454
▁fat	-2455
▁Thou	-2456
IT	-2457
▁Brit	-2458
▁answer	-2459
▁100	-2460
orrow	-2461
▁takes	-2462
▁treatment	-2463
itic	-2464
▁Per	-2465
▁compl	-2466
▁Cont	-2467
▁opt	-2468
▁front	-2469
aughter	-2470
▁safety	-2471
istic	-2472
ength	-2473
▁party	-2474
▁systems	-2475
▁obs	-2476
▁coming	-2477
ades	-2478
▁role	-2479
▁probably	-2480
▁direction	-2481
▁Me	-2482
▁vent	-2483
▁24	-2484
▁heaven	-2485
▁Ab	-2486
ables	-2487
▁shock	-2488
▁£	-2489
▁arm	-2490
▁boy	-2491
▁mad	-2492
▁flood	-2493
▁collect	-2494
▁Sir	-2495
▁bow	-2496
mptoms	-2497
nding	-2498
▁Christ	-2499
▁initial	-2500
iddle	-2501
▁door	-2502
▁assistance	-2503
▁rap	-2504
▁rul	-2505
▁forward	-2506
▁essential	-2507
▁levels	-2508
▁species	-2509
▁]	-2510
gar	-2511
▁aver	-2512
▁gone	-2513
▁Ge	-2514
▁shown	-2515
ept	-2516
▁sense	-2517
▁total	-2518
▁mat	-2519
▁Make	-2520
▁poison	-2521
▁regard	-2522
rain	-2523
▁vill	-2524
▁Bar	-2525
▁eye	-2526
▁Keep	-2527
▁Canad	-2528
▁South	-2529
ENE	-2530
▁page	-2531
▁tree	-2532
uge	-2533
ains	-2534
▁announ	-2535
▁continue	-2536
ream	-2537
▁lie	-2538
▁mag	-2539
RA	-2540
ole	-2541
▁cult	-2542
▁fresh	-2543
-2	-2544
▁Our	-2545
▁boil	-2546
▁remove	-2547
▁Lord	-2548
▁severe	-2549
do	-2550
▁animal	-2551
▁isn	-2552
▁shows	-2553
nes	-2554
atives	-2555
12	-2556
hood	-2557
ected	-2558
▁hast	-2559
▁animals	-2560
▁straight	-2561
▁Ear	-2562
▁honour	-2563
▁neg	-2564
EC	-2565
icles	-2566
▁wife	-2567
▁seems	-2568
▁center	-2569
▁preparedness	-2570
▁results	-2571
▁sources	-2572
▁occup	-2573
▁recogn	-2574
▁recovery	-2575
cri	-2576
▁fort	-2577
▁famil	-2578
▁rain	-2579
▁size	-2580
▁^	-2581
cy	-2582
▁Qu	-2583
ware	-2584
▁den	-2585
▁die	-2586
▁Ger	-2587
▁content	-2588
BC	-2589
mon	-2590
▁pub	-2591
▁Just	-2592
▁history	-2593
▁immediately	-2594
**	-2595
▁weapons	-2596
▁mot	-2597
owers	-2598
▁involved	-2599
▁■	-2600
▁broad	-2601
▁compet	-2602
▁chall	-2603
▁Ant	-2604
itigation	-2605
hern	-2606
▁link	-2607
▁program	-2608
son	-2609
▁terms	-2610
▁Red	-2611
▁cust	-2612
▁estab	-2613
▁issues	-2614
▁Dav	-2615
▁bed	-2616
ained	-2617
▁super	-2618
▁Americans	-2619
OT	-2620
me	-2621
▁Ap	-2622
▁works	-2623
vey	-2624
▁Sen	-2625
▁hit	-2626
uries	-2627
▁late	-2628
▁oil	-2629
ament	-2630
▁meat	-2631
▁services	-2632
ique	-2633
▁jud	-2634
▁soc	-2635
ribut	-2636
▁office	-2637
▁gen	-2638
ressed	-2639
amb	-2640
raft	-2641
▁cop	-2642
▁seek	-2643
well	-2644
▁Tra	-2645
▁stat	-2646
lled	-2647
▁react	-2648
▁thick	-2649
▁approach	-2650
▁exam	-2651
▁mist	-2652
ky	-2653
▁Acc	-2654
▁trees	-2655
rie	-2656
ns	-2657
▁25	-2658
▁fast	-2659
▁SCENE	-2660
▁types	-2661
▁inches	-2662
▁exec	-2663
▁length	-2664
▁Ay	-2665
aint	-2666
▁ago	-2667
▁none	-2668
▁recent	-2669
▁dom	-2670
▁repe	-2671
▁Fe	-2672
▁comfort	-2673
19	-2674
che	-2675
▁alone	-2676
kes	-2677
reg	-2678
str	-2679
▁mix	-2680
▁video	-2681
▁changes	-2682
▁goal	-2683
ET	-2684
▁everything	-2685
haps	-2686
▁Bro	-2687
▁caused	-2688
▁Chapter	-2689
▁ce	-2690
▁coll	-2691
▁raft	-2692
▁officials	-2693
▁represent	-2694
uke	-2695
aily	-2696
▁IS	-2697
▁Add	-2698
oring	-2699
▁dark	-2700
▁edit	-2701
▁fill	-2702
▁compan	-2703
▁reduce	-2704
▁states	-2705
▁knowledge	-2706
isis	-2707
reng	-2708
▁lives	-2709
▁del	-2710
▁card	-2711
▁held	-2712
▁personal	-2713
bed	-2714
pri	-2715
▁Dis	-2716
▁additional	-2717
apan	-2718
enty	-2719
▁Once	-2720
▁exce	-2721
▁skills	-2722
▁federal	-2723
oves	-2724
▁doth	-2725
▁everyone	-2726
▁directly	-2727
▁dro	-2728
▁decl	-2729
▁player	-2730
▁saying	-2731
-0	-2732
▁running	-2733
▁pretty	-2734
▁instead	-2735
▁location	-2736
▁attention	-2737
hold	-2738
ha	-2739
▁OF	-2740
▁aware	-2741
▁brought	-2742
▁Cr	-2743
▁hor	-2744
▁normal	-2745
▁received	-2746
▁6.	-2747
▁Har	-2748
▁goes	-2749
ightly	-2750
▁practice	-2751
wise	-2752
▁described	-2753
▁ep	-2754
▁member	-2755
▁particip	-2756
cue	-2757
▁purpose	-2758
▁relations	-2759
aled	-2760
▁thr	-2761
▁offer	-2762
▁applic	-2763
men	-2764
▁trad	-2765
▁enemy	-2766
dom	-2767
▁paper	-2768
ners	-2769
▁hur	-2770
rael	-2771
▁exc	-2772
▁respect	-2773
▁administ	-2774
▁Gr	-2775
▁Are	-2776
onder	-2777
▁defense	-2778
▁released	-2779
▁search	-2780
▁implement	-2781
erson	-2782
▁doub	-2783
ification	-2784
▁Soc	-2785
▁rock	-2786
▁touch	-2787
vant	-2788
▁cam	-2789
▁cou	-2790
▁fool	-2791
▁relig	-2792
arter	-2793
▁bear	-2794
lim	-2795
iers	-2796
▁operations	-2797
arily	-2798
▁board	-2799
▁release	-2800
unk	-2801
▁capt	-2802
▁salt	-2803
▁teams	-2804
15	-2805
▁jo	-2806
▁ut	-2807
obal	-2808
▁China	-2809
▁Japan	-2810
▁colle	-2811
▁lines	-2812
fficient	-2813
▁section	-2814
ese	-2815
lier	-2816
pite	-2817
▁March	-2818
ij	-2819
▁bill	-2820
undred	-2821
▁50	-2822
▁dru	-2823
▁ensure	-2824
▁average	-2825
chie	-2826
rect	-2827
▁docu	-2828
▁green	-2829
ulner	-2830
▁opport	-2831
▁virt	-2832
▁2014	-2833
▁activities	-2834
▁4)	-2835
rodu	-2836
▁spl	-2837
vival	-2838
▁Google	-2839
▁Although	-2840
lex	-2841
ysis	-2842
▁looks	-2843
▁Jan	-2844
▁Stud	-2845
roy	-2846
cause	-2847
▁standard	-2848
off	-2849
angu	-2850
▁stru	-2851
nces	-2852
right	-2853
uations	-2854
bl	-2855
where	-2856
▁accept	-2857
ighb	-2858
▁gun	-2859
▁sil	-2860
usion	-2861
▁town	-2862
ana	-2863
iant	-2864
▁whom	-2865
ournal	-2866
▁streng	-2867
▁remember	-2868
▁sometimes	-2869
▁ign	-2870
asp	-2871
▁Wild	-2872
▁arrest	-2873
1,	-2874
2,	-2875
alse	-2876
yond	-2877
▁City	-2878
▁assoc	-2879
▁built	-2880
▁medic	-2881
▁separ	-2882
▁staff	-2883
disaster	-2884
▁factors	-2885
sych	-2886
14	-2887
▁reb	-2888
▁peace	-2889
▁economic	-2890
================	-2891
▁Mus	-2892
▁2015	-2893
▁subst	-2894
▁consum	-2895
gov	-2896
urd	-2897
rees	-2898
▁pen	-2899
▁hang	-2900
▄▄	-2901
mit	-2902
▁Cap	-2903
▁▄▄▄	-2904
▁spir	-2905
▁spot	-2906
▁circum	-2907
oes	-2908
▁See	-2909
▁esc	-2910
mical	-2911
▁German	-2912
oard	-2913
▁...	-2914
▁letter	-2915
▁addition	-2916
▁supplies	-2917
lied	-2918
▁TO	-2919
▁rev	-2920
▁supply	-2921
▁produce	-2922
ager	-2923
▁Spe	-2924
▁div	-2925
▁arri	-2926
▁except	-2927
IL	-2928
anch	-2929
▁cand	-2930
▁tit	-2931
▁+	-2932
arp	-2933
ees	-2934
▁crisis	-2935
idge	-2936
een	-2937
wood	-2938
▁cred	-2939
▁gave	-2940
▁signs	-2941
▁instance	-2942
▁symptoms	-2943
▁Oct	-2944
ively	-2945
▁ones	-2946
▁questions	-2947
cast	-2948
▁cord	-2949
▁exact	-2950
▁noble	-2951
▁serve	-2952
▁respond	-2953
▁particularly	-2954
99	-2955
▁etc	-2956
▁tru	-2957
▁Israel	-2958
▁events	-2959
▁disasters	-2960
▁/	-2961
▁road	-2962
▁began	-2963
▁plastic	-2964
see	-2965
▁Nor	-2966
▁King	-2967
▁deli	-2968
▁final	-2969
▁committ	-2970
▁suit	-2971
airs	-2972
▁ord	-2973
lands	-2974
▁bottom	-2975
▁improve	-2976
ai	-2977
▁ye	-2978
urch	-2979
▁kit	-2980
▁covered	-2981
bit	-2982
itten	-2983
▁Place	-2984
▁faith	-2985
▁receive	-2986
▁7.	-2987
▁roof	-2988
▁legal	-2989
▁liber	-2990
16	-2991
ray	-2992
▁40	-2993
▁ST	-2994
▁reve	-2995
idered	-2996
▁hundred	-2997
▁tur	-2998
▁brain	-2999
▁rapid	-3000
▁France	-3001
/2	-3002
70	-3003
80	-3004
▁Gl	-3005
▁send	-3006
▁sens	-3007
ny	-3008
iple	-3009
▁Par	-3010
▁map	-3011
▁frequ	-3012
▁included	-3013
force	-3014
izing	-3015
elt	-3016
▁Af	-3017
▁ten	-3018
▁killed	-3019
▁appropri	-3020
▁hyp	-3021
▁led	-3022
▁kept	-3023
▁although	-3024
▁daughter	-3025
▁International	-3026
▁hole	-3027
▁explos	-3028
St	-3029
▁Aug	-3030
▁round	-3031
▁moving	-3032
aging	-3033
▁nation	-3034
▁prepare	-3035
▁statement	-3036
▁weak	-3037
▁dress	-3038
▁organizations	-3039
idel	-3040
▁Also	-3041
▁Have	-3042
▁rout	-3043
▁cas	-3044
order	-3045
using	-3046
▁truth	-3047
▁signal	-3048
▁Calif	-3049
▁recomm	-3050
cil	-3051
water	-3052
▁Washing	-3053
▁companies	-3054
ests	-3055
eters	-3056
▁agree	-3057
▁basic	-3058
▁color	-3059
▁advant	-3060
▁mention	-3061
just	-3062
▁buy	-3063
▁Than	-3064
▁hair	-3065
▁stock	-3066
▁proced	-3067
ipe	-3068
ground	-3069
▁oppos	-3070
RO	-3071
ech	-3072
▁wasn	-3073
▁considered	-3074
iar	-3075
▁select	-3076
▁Austral	-3077
▁version	-3078
".	-3079
aj	-3080
bre	-3081
▁2016	-3082
▁places	-3083
▁private	-3084
isl	-3085
▁star	-3086
idents	-3087
▁spread	-3088
▁god	-3089
▁hazard	-3090
▁transport	-3091
▁THE	-3092
▁condition	-3093
itiz	-3094
▁achie	-3095
▁Before	-3096
▁obvious	-3097
▁provided	-3098
▁ice	-3099
▁mid	-3100
▁West	-3101
▁fly	-3102
▁shot	-3103
▁speed	-3104
▁veget	-3105
▁moment	-3106
▁morning	-3107
▁Cor	-3108
▁industry	-3109
):	-3110
sp	-3111
inton	-3112
▁forces	-3113
rated	-3114
▁match	-3115
▁wanted	-3116
▁students	-3117
▁Cong	-3118
aul	-3119
▁ge	-3120
uary	-3121
▁wit	-3122
▁became	-3123
▁fit	-3124
▁arms	-3125
▁lose	-3126
▁adequ	-3127
▁tools	-3128
▁IN	-3129
band	-3130
▁sides	-3131
▁ru	-3132
▁tong	-3133
▁custom	-3134
▁progress	-3135
▁Post	-3136
▁pred	-3137
itting	-3138
▁foods	-3139
▁influ	-3140
▁contract	-3141
▁communities	-3142
▁Mark	-3143
▁Mich	-3144
▁interview	-3145
7,	-3146
term	-3147
▁Because	-3148
mia	-3149
▁Reg	-3150
ights	-3151
▁harm	-3152
▁pict	-3153
▁wrote	-3154
▁neighb	-3155
▁reasons	-3156
▁Washington	-3157
otal	-3158
▁Pat	-3159
▁injured	-3160
AC	-3161
▁During	-3162
▁larger	-3163
▁regular	-3164
▁Survival	-3165
▁Ju	-3166
▁mo	-3167
▁laun	-3168
▁|	-3169
▁throw	-3170
▁Californ	-3171
▁expected	-3172
UC	-3173
fact	-3174
iction	-3175
▁placed	-3176
▁secret	-3177
▁playing	-3178
▁extra	-3179
▁bleeding	-3180
▁relative	-3181
▁webs	-3182
▁frame	-3183
▁fellow	-3184
▁vulner	-3185
▁prec	-3186
▁Another	-3187
▁ft	-3188
▁battle	-3189
▁scient	-3190
▁actions	-3191
▁educ	-3192
▁table	-3193
dis	-3194
gin	-3195
joy	-3196
ops	-3197
▁Water	-3198
▁catch	-3199
3,	-3200
ban	-3201
ups	-3202
▁gas	-3203
anced	-3204
▁Sept	-3205
▁sort	-3206
▁forth	-3207
▁beyond	-3208
▁perfect	-3209
▁injuries	-3210
web	-3211
▁argu	-3212
▁lady	-3213
▁happen	-3214
put	-3215
▁bud	-3216
▁unc	-3217
range	-3218
▁Since	-3219
▁choice	-3220
▁quality	-3221
▁According	-3222
UN	-3223
▁8.	-3224
▁Sw	-3225
▁htt	-3226
▁Clinton	-3227
▁population	-3228
▁organization	-3229
▁pan	-3230
▁gives	-3231
▁rights	-3232
key	-3233
sec	-3234
iles	-3235
aught	-3236
▁prop	-3237
▁mitigation	-3238
▁bi	-3239
pril	-3240
▁veh	-3241
▁acqu	-3242
▁billion	-3243
▁Ret	-3244
▁aud	-3245
▁gar	-3246
▁Rich	-3247
ores	-3248
▁Char	-3249
▁popular	-3250
▁physical	-3251
18	-3252
inger	-3253
▁false	-3254
▁grace	-3255
▁purch	-3256
▁played	-3257
▁methods	-3258
uous	-3259
▁defin	-3260
▁address	-3261
10.	-3262
aste	-3263
▁hus	-3264
▁sen	-3265
▁stress	-3266
▁circumst	-3267
▁wa	-3268
▁Yet	-3269
na	-3270
hel	-3271
craft	-3272
▁sett	-3273
▁tear	-3274
edient	-3275
▁langu	-3276
▁anyone	-3277
▁emb	-3278
▁clos	-3279
▁British	-3280
▁provides	-3281
LE	-3282
▁Ca	-3283
▁Ste	-3284
ancial	-3285
imately	-3286
▁container	-3287
▁sat	-3288
▁complex	-3289
▁evacuation	-3290
▁Us	-3291
vive	-3292
▁mer	-3293
▁ends	-3294
▁secure	-3295
ibly	-3296
▁Att	-3297
▁abort	-3298
▁greater	-3299
rit	-3300
▁pal	-3301
▁Take	-3302
▁Face	-3303
urance	-3304
▁prison	-3305
ulations	-3306
▁district	-3307
▁ball	-3308
▁edge	-3309
▁note	-3310
▁trust	-3311
▁parent	-3312
▁ventil	-3313
▁numbers	-3314
▁breathing	-3315
enced	-3316
▁completely	-3317
sequ	-3318
▁Int	-3319
▁har	-3320
▁Look	-3321
▁option	-3322
▁please	-3323
ih	-3324
hest	-3325
itute	-3326
▁sick	-3327
ession	-3328
▁rescue	-3329
▁recently	-3330
▁_	-3331
time	-3332
▁Twitter	-3333
▁production	-3334
▁knows	-3335
▁surpr	-3336
itution	-3337
▁command	-3338
▁reports	-3339
▁Republican	-3340
OP	-3341
uk	-3342
▁sand	-3343
▁chapter	-3344
iring	-3345
▁knew	-3346
▁observ	-3347
▁structure	-3348
▁California	-3349
add	-3350
arks	-3351
irth	-3352
ollow	-3353
▁save	-3354
▁April	-3355
▁Count	-3356
▁smoke	-3357
ault	-3358
iber	-3359
iday	-3360
ours	-3361
▁gets	-3362
▁race	-3363
▁weapon	-3364
▁property	-3365
▁requires	-3366
▁technology	-3367
▁fru	-3368
cember	-3369
▁White	-3370
iam	-3371
aches	-3372
▁aspects	-3373
▁created	-3374
▁surround	-3375
orage	-3376
▁June	-3377
▁News	-3378
▁smok	-3379
▁accur	-3380
▁psych	-3381
earch	-3382
verse	-3383
▁hous	-3384
13	-3385
8,	-3386
ek	-3387
▁sal	-3388
▁charge	-3389
▁AND	-3390
▁Tis	-3391
inary	-3392
isions	-3393
▁share	-3394
▁easier	-3395
▁experi	-3396
▁agencies	-3397
aly	-3398
▁aim	-3399
▁fix	-3400
▁honest	-3401
▁pieces	-3402
▁relief	-3403
▁earlier	-3404
▁Congress	-3405
uild	-3406
ondon	-3407
▁Trans	-3408
▁measure	-3409
vest	-3410
▁cup	-3411
▁features	-3412
▁instruct	-3413
▁Ty	-3414
▁Any	-3415
▁floor	-3416
MA	-3417
ham	-3418
load	-3419
itude	-3420
▁term	-3421
▁chemical	-3422
▁Sch	-3423
▁eight	-3424
▁nearly	-3425
▁authorities	-3426
▁extremely	-3427
40	-3428
▁victims	-3429
▁patients	-3430
,-	-3431
lam	-3432
▁hun	-3433
▁designed	-3434
▁particles	-3435
▁wet	-3436
▁survive	-3437
▁fract	-3438
▁appropriate	-3439
▁Dire	-3440
▁wish	-3441
▁spent	-3442
▁products	-3443
oman	-3444
▁Mon	-3445
▁behav	-3446
▁thank	-3447
▁comput	-3448
▁indeed	-3449
▁overall	-3450
▁Ir	-3451
▁altern	-3452
▁online	-3453
▁leaving	-3454
▁assessment	-3455
▁relationship	-3456
llent	-3457
▁rescu	-3458
▁Em	-3459
▁mob	-3460
▁shoot	-3461
▁sport	-3462
ervative	-3463
▁investig	-3464
25	-3465
▁Over	-3466
▁article	-3467
▁Air	-3468
ellig	-3469
▁soul	-3470
▁speech	-3471
▁Ev	-3472
rant	-3473
▁Two	-3474
▁gir	-3475
▁path	-3476
▁detail	-3477
▁activity	-3478
60	-3479
▁Phil	-3480
▁Rome	-3481
▁conc	-3482
▁trou	-3483
▁expos	-3484
▁Govern	-3485
▁growth	-3486
▁officer	-3487
▁eval	-3488
▁Their	-3489
▁seven	-3490
▁unless	-3491
▁requirements	-3492
▁cry	-3493
iment	-3494
▁song	-3495
▁exerc	-3496
▁casual	-3497
▁obtain	-3498
▁Therefore	-3499
▁situations	-3500
net	-3501
epend	-3502
ormon	-3503
▁gold	-3504
▁doubt	-3505
▁turned	-3506
▁happened	-3507
▁increased	-3508
ival	-3509
▁useful	-3510
▁appears	-3511
▁exposed	-3512
body	-3513
▁Like	-3514
atever	-3515
▁burns	-3516
▁causes	-3517
▁clearly	-3518
▁buildings	-3519
▁difference	-3520
gen	-3521
ope	-3522
▁demon	-3523
▁attend	-3524
▁demand	-3525
▁conduct	-3526
▁disease	-3527
▁majority	-3528
▁Def	-3529
▁Net	-3530
▁Every	-3531
▁August	-3532
▁execut	-3533
▁middle	-3534
esh	-3535
▁pit	-3536
▁capital	-3537
▁smaller	-3538
rol	-3539
▁ir	-3540
inch	-3541
uate	-3542
▁ing	-3543
▁Tues	-3544
▁gain	-3545
▁identify	-3546
ios	-3547
vin	-3548
▁box	-3549
▁July	-3550
▁Total	-3551
▁opening	-3552
▁analysis	-3553
nds	-3554
▁El	-3555
▁Canada	-3556
▁December	-3557
▁Facebook	-3558
▁strength	-3559
24	-3560
OS	-3561
▁Val	-3562
oming	-3563
▁throughout	-3564
▁user	-3565
▁Satur	-3566
▁daily	-3567
▁performance	-3568
▁circumstances	-3569
ria	-3570
▁entry	-3571
▁princ	-3572
▁includes	-3573
In	-3574
▁flu	-3575
ension	-3576
▁enter	-3577
▁Follow	-3578
▁limited	-3579
het	-3580
▁1,	-3581
▁wel	-3582
night	-3583
▁Sign	-3584
▁engine	-3585
▁network	-3586
▁perhaps	-3587
ael	-3588
▁lo	-3589
nown	-3590
▁Such	-3591
▁fuel	-3592
▁David	-3593
▁enjoy	-3594
▁stuff	-3595
▁financial	-3596
uty	-3597
▁upd	-3598
inder	-3599
▁bone	-3600
▁rare	-3601
▁Committ	-3602
▁September	-3603
asc	-3604
lin	-3605
aked	-3606
▁favor	-3607
▁English	-3608
▁Tuesday	-3609
▁becomes	-3610
▁related	-3611
▁increasing	-3612
itics	-3613
▁Coun	-3614
--------	-3615
rom	-3616
▁dog	-3617
▁fem	-3618
▁Mond	-3619
▁died	-3620
▁huge	-3621
▁pump	-3622
▁spok	-3623
active	-3624
▁citiz	-3625
▁zombie	-3626
▁minimum	-3627
IA	-3628
yn	-3629
▁Sk	-3630
ivity	-3631
ulated	-3632
▁happy	-3633
▁worked	-3634
▁Sub	-3635
▁club	-3636
▁January	-3637
9,	-3638
Wh	-3639
apt	-3640
▁FIR	-3641
▁crow	-3642
▁model	-3643
▁global	-3644
▁legisl	-3645
▁modern	-3646
▁England	-3647
▁website	-3648
▁workers	-3649
▁affected	-3650
▁Wed	-3651
oving	-3652
▁Under	-3653
▁generally	-3654
-3	-3655
▁)	-3656
aces	-3657
▁till	-3658
▁beaut	-3659
▁sharp	-3660
▁stret	-3661
sect	-3662
ship	-3663
▁Bel	-3664
▁Bra	-3665
▁lat	-3666
opped	-3667
▁firm	-3668
▁plat	-3669
▁Sim	-3670
▁cast	-3671
▁imag	-3672
▁shape	-3673
▁written	-3674
▁✓	-3675
▁pun	-3676
▁Morse	-3677
▁estim	-3678
▁society	-3679
lls	-3680
▁San	-3681
▁Gener	-3682
▁sword	-3683
▁voice	-3684
▁announced	-3685
chan	-3686
icro	-3687
▁tele	-3688
▁worse	-3689
▁allows	-3690
bon	-3691
oop	-3692
▁197	-3693
aries	-3694
▁flow	-3695
▁uses	-3696
ENT	-3697
▁Yes	-3698
▁lad	-3699
▁dear	-3700
▁summer	-3701
▁destroy	-3702
▁determine	-3703
▁Av	-3704
imin	-3705
▁Get	-3706
▁persons	-3707
▁CH	-3708
....	-3709
ourt	-3710
▁fans	-3711
▁price	-3712
▁comment	-3713
fe	-3714
▁moved	-3715
▁reven	-3716
▁construct	-3717
▁hosp	-3718
vertise	-3719
▁giving	-3720
▁remains	-3721
▁zombies	-3722
▁@	-3723
ero	-3724
▁Nay	-3725
▁disp	-3726
▁Afric	-3727
▁tongue	-3728
cr	-3729
aced	-3730
style	-3731
▁2010	-3732
idelines	-3733
▁degrees	-3734
orge	-3735
istics	-3736
▁Thurs	-3737
ribution	-3738
raw	-3739
dden	-3740
http	-3741
▁Paul	-3742
▁adequate	-3743
▁election	-3744
ford	-3745
alled	-3746
vention	-3747
▁Indian	-3748
▁broken	-3749
▁October	-3750
▁advantage	-3751
▁published	-3752
▁tie	-3753
olute	-3754
▁minute	-3755
▁consist	-3756
▁pattern	-3757
chers	-3758
▁Monday	-3759
▁region	-3760
▁European	-3761
can	-3762
rast	-3763
▁Lab	-3764
▁phone	-3765
▁prove	-3766
▁immediate	-3767
▁(3	-3768
based	-3769
▁mount	-3770
▁illust	-3771
oto	-3772
▁60	-3773
▁bod	-3774
▁fra	-3775
▁Comp	-3776
pendix	-3777
▁books	-3778
▁request	-3779
▁Thursday	-3780
▁?	-3781
▁UK	-3782
iate	-3783
▁198	-3784
▁anti	-3785
▁Wednes	-3786
cription	-3787
▁carried	-3788
lor	-3789
▁AC	-3790
▁wear	-3791
▁track	-3792
▁London	-3793
▁distance	-3794
ceed	-3795
roke	-3796
▁Off	-3797
▁tal	-3798
aling	-3799
▁Prep	-3800
▁Sund	-3801
▁Thus	-3802
▁write	-3803
othermia	-3804
inct	-3805
▁●	-3806
aker	-3807
ming	-3808
▁arg	-3809
▁Park	-3810
▁fully	-3811
▁memory	-3812
▁Wednesday	-3813
/20	-3814
zen	-3815
▁miles	-3816
▁users	-3817
▁prefer	-3818
▁constant	-3819
▁Committee	-3820
▁{\	-3821
down	-3822
iling	-3823
▁Kore	-3824
▁Read	-3825
▁text	-3826
▁handle	-3827
enge	-3828
▁Medic	-3829
▁coord	-3830
▁image	-3831
▁candid	-3832
▁studies	-3833
ching	-3834
ulate	-3835
▁Food	-3836
▁chest	-3837
▁sight	-3838
▁forest	-3839
RE	-3840
ancy	-3841
ooth	-3842
rate	-3843
▁Out	-3844
▁economy	-3845
▁introdu	-3846
▁Feb	-3847
▁email	-3848
▁thinking	-3849
▁procedures	-3850
▁individuals	-3851
▁PM	-3852
asion	-3853
▁High	-3854
▁rules	-3855
▁storm	-3856
▁tight	-3857
▁sudden	-3858
22	-3859
asks	-3860
rupt	-3861
▁Gra	-3862
▁fine	-3863
▁liqu	-3864
▁rise	-3865
▁wait	-3866
▁husband	-3867
▁previously	-3868
▁ND	-3869
▁pet	-3870
▁Time	-3871
▁bark	-3872
▁reflect	-3873
AM	-3874
▁neck	-3875
change	-3876
estern	-3877
▁Black	-3878
▁steps	-3879
▁sugar	-3880
▁French	-3881
▁applied	-3882
▁developed	-3883
▁Fin	-3884
▁lif	-3885
▁meeting	-3886
▁starting	-3887
17	-3888
This	-3889
bing	-3890
reed	-3891
▁jobs	-3892
▁cooking	-3893
▁MP	-3894
▁Pal	-3895
▁rocks	-3896
▁wants	-3897
▁correct	-3898
exic	-3899
ults	-3900
▁visit	-3901
▁couple	-3902
▁multiple	-3903
▁bes	-3904
▁Dist	-3905
▁Fair	-3906
▁Resp	-3907
▁cells	-3908
ossible	-3909
▁figure	-3910
▁leader	-3911
▁foreign	-3912
▁produced	-3913
PR	-3914
erg	-3915
▁TV	-3916
▁Sum	-3917
▁Party	-3918
▁choose	-3919
hib	-3920
▁9.	-3921
▁Plan	-3922
▁Apple	-3923
ube	-3924
▁Hum	-3925
▁breath	-3926
▁spirit	-3927
▁personnel	-3928
egr	-3929
▁nut	-3930
▁ver	-3931
▁Cook	-3932
▁leading	-3933
▁Minister	-3934
▁thousand	-3935
▁Hel	-3936
ares	-3937
▁Met	-3938
▁brief	-3939
▁scene	-3940
▁stage	-3941
▁message	-3942
▁Republicans	-3943
▁administration	-3944
rs	-3945
iques	-3946
▁Fire	-3947
▁bank	-3948
▁electric	-3949
iny	-3950
cket	-3951
▁bal	-3952
▁hop	-3953
▁Ange	-3954
▁gall	-3955
▁vote	-3956
▁autom	-3957
▁youth	-3958
▁wounds	-3959
ein	-3960
▁Rober	-3961
▁stone	-3962
▁Friday	-3963
▁presence	-3964
▁KAP	-3965
field	-3966
▁wire	-3967
▁batter	-3968
▁exactly	-3969
▁Rel	-3970
▁feed	-3971
▁costs	-3972
▁walls	-3973
▁slightly	-3974
44	-3975
ii	-3976
▁defend	-3977
▁currently	-3978
▁emot	-3979
rian	-3980
▁10.	-3981
▁Again	-3982
▁doors	-3983
ovember	-3984
▁wonder	-3985
more	-3986
▁via	-3987
▁knife	-3988
6,	-3989
OM	-3990
▁Caes	-3991
▁alle	-3992
▁qual	-3993
▁categ	-3994
▁Sunday	-3995
▁highly	-3996
▁drinking	-3997
▁officers	-3998
▁mill	-3999
▁opin	-4000
oughly	-4001
ourage	-4002
▁calls	-4003
▁north	-4004
▁Research	-4005
▁language	-4006
bi	-4007
hyd	-4008
▁pra	-4009
ander	-4010
ously	-4011
▁Shall	-4012
▁helps	-4013
▁survey	-4014
▁intellig	-4015
▁platform	-4016
▁opportunity	-4017
fra	-4018
inese	-4019
tered	-4020
▁mach	-4021
▁liter	-4022
▁Author	-4023
▁connect	-4024
▁efforts	-4025
▁growing	-4026
▁primary	-4027
▁excellent	-4028
▁22	-4029
▁ring	-4030
▁soil	-4031
▁depart	-4032
OW	-4033
▁Check	-4034
related	-4035
▁hazards	-4036
▁removed	-4037
▁variety	-4038
▁associated	-4039
He	-4040
▁beat	-4041
lict	-4042
▁Give	-4043
▁Mexic	-4044
▁closed	-4045
po	-4046
▁felt	-4047
▁queen	-4048
▁tried	-4049
▁People	-4050
▁strugg	-4051
▁aircraft	-4052
▁document	-4053
▁understanding	-4054
king	-4055
omen	-4056
▁onto	-4057
▁thin	-4058
▁focus	-4059
cho	-4060
▁Det	-4061
▁birth	-4062
▁joint	-4063
▁storage	-4064
▁director	-4065
▁conference	-4066
hand	-4067
icks	-4068
▁paid	-4069
▁Islam	-4070
▁mechan	-4071
UT	-4072
ss	-4073
▁cat	-4074
asure	-4075
▁clim	-4076
▁hence	-4077
imeters	-4078
▁Chinese	-4079
▁allowed	-4080
▁relevant	-4081
▁providing	-4082
You	-4083
aming	-4084
▁Jack	-4085
▁Assoc	-4086
▁bound	-4087
▁thousands	-4088
▁responsible	-4089
▁mur	-4090
onents	-4091
▁grass	-4092
▁Center	-4093
▁decided	-4094
▁beginning	-4095
GO	-4096
zz	-4097
isk	-4098
▁Mad	-4099
▁inn	-4100
▁aren	-4101
▁asse	-4102
▁accom	-4103
▁Russian	-4104
▁convers	-4105
▁talking	-4106
▁critical	-4107
rial	-4108
▁minor	-4109
?”	-4110
pre	-4111
▁vir	-4112
▁adjust	-4113
▁mental	-4114
▁sticks	-4115
If	-4116
issue	-4117
▁facilities	-4118
new	-4119
weet	-4120
▁cloud	-4121
▁trade	-4122
▁terror	-4123
▁details	-4124
▁families	-4125
▁relatively	-4126
hab	-4127
▁wat	-4128
▁flat	-4129
▁earthqu	-4130
▁epis	-4131
▁climate	-4132
▁education	-4133
hol	-4134
▁arrange	-4135
▁followed	-4136
▁otherwise	-4137
▁recommend	-4138
ev	-4139
isp	-4140
▁gro	-4141
ternal	-4142
▁claims	-4143
▁monitor	-4144
▁November	-4145
▁India	-4146
▁skill	-4147
▁forced	-4148
▁explosion	-4149
90	-4150
mat	-4151
bris	-4152
▁uns	-4153
enter	-4154
▁Hill	-4155
▁task	-4156
▁Donald	-4157
▁device	-4158
▁escape	-4159
▁attract	-4160
▁concept	-4161
▁solution	-4162
▁construction	-4163
SS	-4164
ado	-4165
▁unf	-4166
poses	-4167
▁budget	-4168
▁quarter	-4169
▁Democrats	-4170
-5	-4171
odes	-4172
ties	-4173
▁pul	-4174
▁Sand	-4175
▁obst	-4176
rieved	-4177
▁spend	-4178
▁title	-4179
▁cities	-4180
▁Michael	-4181
▁attacks	-4182
▁changed	-4183
▁science	-4184
▁Remember	-4185
▁°	-4186
utions	-4187
▁exposure	-4188
▁projects	-4189
vertisement	-4190
▁FIRST	-4191
▁critic	-4192
▁spring	-4193
▁Shelter	-4194
▁meaning	-4195
▁strange	-4196
▁rob	-4197
▁ult	-4198
▁solid	-4199
▁double	-4200
ipp	-4201
▁bul	-4202
known	-4203
▁Police	-4204
aks	-4205
mark	-4206
▁bab	-4207
wards	-4208
▁East	-4209
▁drop	-4210
▁load	-4211
▁lock	-4212
▁Earth	-4213
▁homes	-4214
▁Russia	-4215
▁agency	-4216
▁replace	-4217
▁towards	-4218
oos	-4219
adem	-4220
▁Court	-4221
▁crown	-4222
▁resear	-4223
▁learned	-4224
▁reached	-4225
▁poisonous	-4226
",	-4227
OC	-4228
oph	-4229
▁amb	-4230
▁draft	-4231
▁loved	-4232
▁trench	-4233
▁compass	-4234
▁benefits	-4235
▁continued	-4236
▁investigation	-4237
▁\(	-4238
press	-4239
▁core	-4240
▁trap	-4241
▁layer	-4242
▁smooth	-4243
▁thoughts	-4244
▁infection	-4245
FL	-4246
lebr	-4247
▁Did	-4248
▁hell	-4249
▁career	-4250
▁Appendix	-4251
▁Tex	-4252
▁2012	-4253
erences	-4254
▁burning	-4255
▁willing	-4256
▁restrict	-4257
▁SH	-4258
▁Inc	-4259
acher	-4260
▁Upon	-4261
▁arch	-4262
▁shut	-4263
▁histor	-4264
▁instructions	-4265
nc	-4266
▁los	-4267
angers	-4268
▁manner	-4269
▁origin	-4270
▁passed	-4271
▁concent	-4272
▁funding	-4273
▁»	-4274
hens	-4275
▁tip	-4276
▁trip	-4277
iminal	-4278
▁crowd	-4279
▁yield	-4280
▁highest	-4281
▁impossible	-4282
▁41	-4283
wide	-4284
▁Those	-4285
▁Emergency	-4286
▁certainly	-4287
ma	-4288
roud	-4289
ruary	-4290
▁coal	-4291
▁rule	-4292
▁Press	-4293
▁decre	-4294
▁biggest	-4295
▁absolute	-4296
▁existing	-4297
▁reduction	-4298
la	-4299
rows	-4300
▁conv	-4301
▁cups	-4302
▁date	-4303
▁moist	-4304
▁thine	-4305
▁notice	-4306
▁writing	-4307
▁whatever	-4308
▁centimeters	-4309
▁Bo	-4310
▁Del	-4311
▁Hist	-4312
▁emerg	-4313
▁tasks	-4314
lection	-4315
▁showed	-4316
▁suspect	-4317
▁positive	-4318
▁religious	-4319
AD	-4320
EM	-4321
ida	-4322
icip	-4323
orne	-4324
▁2017	-4325
▁Arch	-4326
▁Note	-4327
▁drug	-4328
▁names	-4329
mercial	-4330
▁George	-4331
▁careful	-4332
▁welcome	-4333
ARD	-4334
▁Rec	-4335
acity	-4336
▁Stre	-4337
▁hate	-4338
▁coast	-4339
display	-4340
▁schools	-4341
▁expedient	-4342
izes	-4343
▁Bet	-4344
▁web	-4345
▁Book	-4346
▁unto	-4347
▁movie	-4348
▁compared	-4349
45	-4350
esty	-4351
▁Cell	-4352
▁lies	-4353
icated	-4354
▁actual	-4355
▁debris	-4356
▁despite	-4357
▁resource	-4358
▁separate	-4359
▁techniques	-4360
displaystyle	-4361
que	-4362
cont	-4363
▁fro	-4364
▁bird	-4365
▁teach	-4366
▁setting	-4367
▁dressing	-4368
▁violence	-4369
▁concerned	-4370
akers	-4371
▁2011	-4372
▁rich	-4373
vision	-4374
▁Brown	-4375
▁Times	-4376
▁apart	-4377
▁chief	-4378
▁feeling	-4379
▁elements	-4380
mp	-4381
amps	-4382
▁ere	-4383
▁rot	-4384
▁forms	-4385
▁meant	-4386
▁edible	-4387
▁options	-4388
▁reading	-4389
▁functions	-4390
4)	-4391
othes	-4392
▁adding	-4393
LA	-4394
aped	-4395
▁born	-4396
▁http	-4397
▁drive	-4398
▁satis	-4399
▁tempor	-4400
yl	-4401
orp	-4402
iled	-4403
▁ran	-4404
arrow	-4405
▁grad	-4406
▁pole	-4407
▁Never	-4408
▁shame	-4409
▁agents	-4410
▁parents	-4411
▁purposes	-4412
▁software	-4413
,--	-4414
orks	-4415
▁tro	-4416
▁Offic	-4417
oration	-4418
▁citizens	-4419
▁glass	-4420
▁Health	-4421
▁Though	-4422
▁authority	-4423
▁eventually	-4424
bur	-4425
▁COM	-4426
essel	-4427
▁guard	-4428
▁refer	-4429
▁worst	-4430
▁independ	-4431
berg	-4432
▁anc	-4433
arian	-4434
orter	-4435
▁Both	-4436
▁Step	-4437
▁corn	-4438
▁pros	-4439
▁metal	-4440
▁taste	-4441
arewell	-4442
▁conflict	-4443
23	-4444
▁Mor	-4445
▁poll	-4446
▁sust	-4447
▁vert	-4448
▁Super	-4449
▁prepar	-4450
▁achieve	-4451
▁keeping	-4452
▁incident	-4453
▁Australia	-4454
ints	-4455
room	-4456
▁Loc	-4457
▁bid	-4458
▁Thom	-4459
▁immig	-4460
▁latest	-4461
▁soldiers	-4462
▁leadership	-4463
ago	-4464
era	-4465
▁Hy	-4466
unes	-4467
inter	-4468
ushed	-4469
▁2013	-4470
▁subs	-4471
▁basis	-4472
outhern	-4473
▁County	-4474
▁border	-4475
▁degree	-4476
▁status	-4477
▁demonstr	-4478
▁ventilation	-4479
aur	-4480
iced	-4481
▁196	-4482
▁Rad	-4483
iders	-4484
uable	-4485
▁ster	-4486
▁Green	-4487
▁strike	-4488
▁February	-4489
▁contribut	-4490
▁establish	-4491
▁Hen	-4492
▁rat	-4493
▁san	-4494
▁Alex	-4495
erness	-4496
ushing	-4497
▁Would	-4498
▁steel	-4499
▁insurance	-4500
▁established	-4501
ga	-4502
what	-4503
▁mir	-4504
▁rank	-4505
▁James	-4506
▁approx	-4507
▁credit	-4508
▁desert	-4509
▁gather	-4510
▁General	-4511
▁Service	-4512
▁ju	-4513
coin	-4514
▁rub	-4515
place	-4516
▁Each	-4517
▁dust	-4518
▁gods	-4519
▁inch	-4520
▁lords	-4521
▁rates	-4522
▁central	-4523
▁containers	-4524
pir	-4525
tra	-4526
▁RE	-4527
oted	-4528
▁sad	-4529
acters	-4530
▁named	-4531
▁looked	-4532
CE	-4533
isc	-4534
▁il	-4535
proof	-4536
▁diam	-4537
▁horiz	-4538
▁loose	-4539
▁desire	-4540
▁league	-4541
▁largest	-4542
▁stories	-4543
formation	-4544
▁diseases	-4545
/0	-4546
”.	-4547
IUS	-4548
umn	-4549
▁wid	-4550
going	-4551
haust	-4552
riage	-4553
▁Port	-4554
▁blow	-4555
▁fires	-4556
orthern	-4557
▁standing	-4558
▁interesting	-4559
pes	-4560
▁Mac	-4561
▁Great	-4562
▁trail	-4563
▁School	-4564
▁Council	-4565
▁deliver	-4566
▁hospital	-4567
▁powerful	-4568
▁McC	-4569
▁yes	-4570
▁helped	-4571
▁happens	-4572
▁Saturday	-4573
▁behavior	-4574
▁carefully	-4575
udd	-4576
▁Ac	-4577
unch	-4578
▁vari	-4579
▁noted	-4580
▁Caesar	-4581
aminated	-4582
200	-4583
arge	-4584
▁Rob	-4585
▁Conf	-4586
▁forg	-4587
▁roots	-4588
▁follows	-4589
ino	-4590
▁Saf	-4591
▁Thy	-4592
isters	-4593
▁wouldn	-4594
▁examples	-4595
▁coach	-4596
________	-4597
forcement	-4598
▁policies	-4599
▁Retrieved	-4600
▁awareness	-4601
raq	-4602
▁unit	-4603
▁score	-4604
▁Public	-4605
▁prince	-4606
▁creating	-4607
▁Government	-4608
resp	-4609
▁Fat	-4610
▁Mod	-4611
ipped	-4612
▁Main	-4613
▁insect	-4614
▁spokes	-4615
▁mentioned	-4616
▁successful	-4617
1)	-4618
ica	-4619
▁push	-4620
▁upper	-4621
▁celebr	-4622
▁slowly	-4623
▁Japanese	-4624
▁coverage	-4625
▁importance	-4626
▁Op	-4627
▁grant	-4628
▁integr	-4629
▁Society	-4630
▁characters	-4631
orters	-4632
▁Texas	-4633
▁flesh	-4634
▁meters	-4635
redients	-4636
▁Without	-4637
▁devices	-4638
▁objects	-4639
4,	-4640
▁UN	-4641
miss	-4642
▁ang	-4643
point	-4644
▁tests	-4645
▁debate	-4646
▁factor	-4647
▁Democratic	-4648
35	-4649
nl	-4650
▁Day	-4651
▁Only	-4652
▁laws	-4653
▁stir	-4654
▁limit	-4655
▁tears	-4656
▁League	-4657
▁bodies	-4658
▁explain	-4659
▁becoming	-4660
vis	-4661
▁Cur	-4662
▁cuts	-4663
▁doll	-4664
▁judge	-4665
▁cordage	-4666
▁journal	-4667
▁student	-4668
eal	-4669
pan	-4670
icit	-4671
▁trig	-4672
▁wave	-4673
▁haven	-4674
▁Senate	-4675
78	-4676
▁}	-4677
ture	-4678
ested	-4679
▁Master	-4680
▁murder	-4681
ibilities	-4682
▁responsibility	-4683
aud	-4684
▁Tur	-4685
▁Stand	-4686
▁truly	-4687
▁familiar	-4688
▁practical	-4689
▁application	-4690
▁communications	-4691
ett	-4692
▁Ye	-4693
riend	-4694
▁diet	-4695
▁legs	-4696
morrow	-4697
▁humans	-4698
▁unlike	-4699
▁feature	-4700
▁minister	-4701
ona	-4702
ardon	-4703
▁Play	-4704
▁century	-4705
▁reality	-4706
▁intelligence	-4707
▁1⁄	-4708
▁Cy	-4709
▁(20	-4710
istance	-4711
▁sexual	-4712
▁stated	-4713
▁comments	-4714
▁exercise	-4715
▁opposite	-4716
▁Advertisement	-4717
100	-4718
rad	-4719
▁ox	-4720
ille	-4721
▁Whe	-4722
cohol	-4723
isher	-4724
ufact	-4725
▁Lear	-4726
▁blog	-4727
▁scen	-4728
▁tick	-4729
▁fruit	-4730
▁river	-4731
▁Muslim	-4732
▁falling	-4733
▁flo	-4734
gment	-4735
▁copy	-4736
▁libr	-4737
▁ship	-4738
ricane	-4739
▁mostly	-4740
▁tables	-4741
▁fighting	-4742
▁occupants	-4743
under	-4744
▁prem	-4745
ifying	-4746
▁illeg	-4747
▁smell	-4748
▁Second	-4749
▁income	-4750
▁properly	-4751
▁possibility	-4752
UL	-4753
▁(@	-4754
▁cru	-4755
▁waste	-4756
unately	-4757
▁extend	-4758
▁string	-4759
▁vessel	-4760
▁Richard	-4761
▁charges	-4762
▁justice	-4763
▁covering	-4764
▁internal	-4765
mar	-4766
iful	-4767
▁fan	-4768
▁madam	-4769
▁raise	-4770
▁alleged	-4771
▁opinion	-4772
▁soldier	-4773
▁casualty	-4774
▁learning	-4775
rec	-4776
erry	-4777
▁Ser	-4778
▁tox	-4779
orney	-4780
▁Iraq	-4781
iveness	-4782
▁decide	-4783
▁shield	-4784
▁culture	-4785
▁influence	-4786
95	-4787
▁Dan	-4788
board	-4789
rants	-4790
▁vary	-4791
▁ahead	-4792
▁amounts	-4793
▁challeng	-4794
32	-4795
gl	-4796
▁©	-4797
ads	-4798
rab	-4799
▁joy	-4800
ashion	-4801
▁sites	-4802
▁repeated	-4803
▁environmental	-4804
▁Cd	-4805
nings	-4806
▁Zomb	-4807
▁mort	-4808
▁appeared	-4809
IO	-4810
ram	-4811
uce	-4812
▁Jo	-4813
▁ax	-4814
▁ash	-4815
There	-4816
lease	-4817
▁Stem	-4818
nesses	-4819
ribute	-4820
▁conce	-4821
mission	-4822
▁shared	-4823
▁Germany	-4824
▁identified	-4825
▁structures	-4826
▁max	-4827
▁assum	-4828
▁equal	-4829
▁chances	-4830
▁strateg	-4831
▁ON	-4832
look	-4833
outs	-4834
roup	-4835
ially	-4836
itely	-4837
ronic	-4838
▁bite	-4839
▁sche	-4840
▁rapidly	-4841
▁increases	-4842
▁temperatures	-4843
aft	-4844
fall	-4845
with	-4846
▁(1)	-4847
▁occurs	-4848
▁cutting	-4849
▁decisions	-4850
▁effectively	-4851
ESS	-4852
ext	-4853
iest	-4854
rier	-4855
▁III	-4856
ented	-4857
istan	-4858
▁Organ	-4859
▁criminal	-4860
▁distress	-4861
▁vertical	-4862
▁challenge	-4863
▁commercial	-4864
zy	-4865
omin	-4866
part	-4867
▁Jew	-4868
▁guy	-4869
acing	-4870
▁join	-4871
▁kids	-4872
▁proud	-4873
▁spoke	-4874
▁square	-4875
▁failure	-4876
▁vegetation	-4877
▁Fig	-4878
▁alloc	-4879
▁Street	-4880
ications	-4881
▁apparent	-4882
▁hypothermia	-4883
▁communication	-4884
CH	-4885
▁oft	-4886
▁clay	-4887
▁dost	-4888
▁Smith	-4889
▁goals	-4890
▁horse	-4891
▁parag	-4892
▁massive	-4893
▁spending	-4894
▁28	-4895
▁shad	-4896
▁swim	-4897
▁Thomas	-4898
▁raised	-4899
▁voters	-4900
▁benefit	-4901
▁interact	-4902
▁transfer	-4903
▁obviously	-4904
etic	-4905
▁Ham	-4906
▁NGO	-4907
▁guys	-4908
▁finding	-4909
▁picture	-4910
▁concerns	-4911
▁friendly	-4912
▁legislation	-4913
ums	-4914
gers	-4915
▁liquid	-4916
▁display	-4917
▁YO	-4918
lets	-4919
long	-4920
▁scale	-4921
▁sounds	-4922
▁records	-4923
36	-4924
iju	-4925
mal	-4926
nih	-4927
ords	-4928
weed	-4929
▁Tom	-4930
▁sap	-4931
▁Bill	-4932
▁Wind	-4933
▁freed	-4934
▁church	-4935
▁plenty	-4936
▁stored	-4937
▁thanks	-4938
▁twenty	-4939
▁computer	-4940
▁presidential	-4941
pm	-4942
▁FOR	-4943
▁List	-4944
▁Henry	-4945
▁smart	-4946
▁stands	-4947
▁allowing	-4948
▁Di	-4949
▁gh	-4950
ston	-4951
▁Mil	-4952
▁flag	-4953
▁nice	-4954
ijuana	-4955
▁Guide	-4956
▁alive	-4957
▁ended	-4958
▁swear	-4959
▁failed	-4960
▁express	-4961
▁id	-4962
▁Const	-4963
▁Somet	-4964
▁Union	-4965
▁train	-4966
▁combat	-4967
▁strate	-4968
▁stream	-4969
▁regions	-4970
▁sleeping	-4971
▁continues	-4972
▁radioactive	-4973
oly	-4974
roid	-4975
▁analy	-4976
▁yours	-4977
▁hither	-4978
▁manager	-4979
▁OR	-4980
▁Pri	-4981
▁RES	-4982
▁lic	-4983
▁Matt	-4984
▁chair	-4985
▁Commun	-4986
▁appoint	-4987
▁damaged	-4988
▁predict	-4989
hydration	-4990
▁strategy	-4991
ked	-4992
uts	-4993
▁jar	-4994
▁fell	-4995
illing	-4996
▁Treat	-4997
▁turns	-4998
▁carbon	-4999
▁undead	-5000
▁letters	-5001
▁showing	-5002
▁AP	-5003
▁IT	-5004
▁Bre	-5005
rence	-5006
▁Star	-5007
▁dose	-5008
▁file	-5009
▁mere	-5010
▁style	-5011
▁tourn	-5012
▁compar	-5013
▁screen	-5014
▁seeing	-5015
▁involve	-5016
▁matters	-5017
▁neither	-5018
▁seconds	-5019
▁infected	-5020
▁programm	-5021
▁paragraph	-5022
▁alternative	-5023
TH	-5024
nlm	-5025
oks	-5026
▁tim	-5027
▁wis	-5028
OO	-5029
▁pow	-5030
apers	-5031
▁runs	-5032
▁forget	-5033
▁propos	-5034
▁street	-5035
▁decades	-5036
▁healthy	-5037
▁believed	-5038
▁reaction	-5039
5,	-5040
Ch	-5041
avy	-5042
icy	-5043
▁EU	-5044
lder	-5045
ncbi	-5046
▁pon	-5047
which	-5048
▁Marc	-5049
ashing	-5050
ighter	-5051
▁risks	-5052
archive	-5053
▁advice	-5054
▁senior	-5055
▁trouble	-5056
▁department	-5057
.’	-5058
/3	-5059
ux	-5060
ding	-5061
isms	-5062
erate	-5063
▁Last	-5064
▁cycl	-5065
▁debt	-5066
▁guide	-5067
▁greatest	-5068
▁horizont	-5069
▁hundreds	-5070
▁capability	-5071
box	-5072
▁Sl	-5073
▁mal	-5074
▁thor	-5075
▁finish	-5076
▁unique	-5077
▁arrangements	-5078
ae	-5079
▁BE	-5080
▁egg	-5081
igned	-5082
▁bless	-5083
▁inner	-5084
▁newsp	-5085
ication	-5086
▁outbre	-5087
▁capacity	-5088
▁contains	-5089
86	-5090
lying	-5091
▁Jose	-5092
manent	-5093
▁lived	-5094
▁active	-5095
▁excess	-5096
▁theory	-5097
▁Develop	-5098
▁battery	-5099
▁argument	-5100
▁frequently	-5101
BI	-5102
ki	-5103
▁Je	-5104
kend	-5105
▁(2)	-5106
Aside	-5107
level	-5108
▁adop	-5109
▁amaz	-5110
▁calc	-5111
▁diss	-5112
▁nine	-5113
▁wise	-5114
▁crime	-5115
▁dream	-5116
▁grand	-5117
▁ideas	-5118
▁south	-5119
▁causing	-5120
▁charged	-5121
▁stopped	-5122
▁Authority	-5123
mg	-5124
DER	-5125
▁Haw	-5126
▁Max	-5127
rates	-5128
▁Office	-5129
▁instru	-5130
PS	-5131
tle	-5132
▁2,	-5133
ront	-5134
zing	-5135
▁Law	-5136
▁Sun	-5137
▁spr	-5138
▁Inter	-5139
▁Pract	-5140
ructure	-5141
▁issued	-5142
▁consequ	-5143
▁holding	-5144
▁entirely	-5145
▁developing	-5146
▁researchers	-5147
phas	-5148
▁11.	-5149
▁Tod	-5150
▁marriage	-5151
EO	-5152
PH	-5153
lly	-5154
▁Ben	-5155
▁Luc	-5156
▁Iran	-5157
▁bare	-5158
▁nose	-5159
▁burst	-5160
ulating	-5161
▁Secret	-5162
▁alcohol	-5163
abilities	-5164
▁Ult	-5165
▁mut	-5166
▁Fore	-5167
▁girl	-5168
▁jars	-5169
▁kiss	-5170
▁heads	-5171
▁maybe	-5172
▁signed	-5173
▁starts	-5174
▁hearing	-5175
▁indicate	-5176
55	-5177
AG	-5178
AY	-5179
ker	-5180
olf	-5181
imal	-5182
ller	-5183
uing	-5184
▁Cut	-5185
▁Tor	-5186
▁mel	-5187
▁scr	-5188
▁sin	-5189
erved	-5190
house	-5191
▁Amaz	-5192
▁Prot	-5193
▁corpor	-5194
▁claimed	-5195
▁fortune	-5196
▁typically	-5197
list	-5198
mbol	-5199
▁Bit	-5200
▁Put	-5201
▁anx	-5202
ctors	-5203
iency	-5204
anches	-5205
▁delay	-5206
▁flash	-5207
▁numer	-5208
▁vital	-5209
▁fairly	-5210
▁finally	-5211
▁abortion	-5212
▁Institute	-5213
▁earthquake	-5214
▁prevention	-5215
gn	-5216
kin	-5217
▁Ry	-5218
▁Mal	-5219
▁Call	-5220
▁Cross	-5221
▁route	-5222
▁occurred	-5223
▁completed	-5224
▁gentleman	-5225
▁operating	-5226
▁traditional	-5227
▁45	-5228
▁Big	-5229
▁roy	-5230
agers	-5231
▁kick	-5232
▁sequ	-5233
▁twice	-5234
▁History	-5235
▁supposed	-5236
tw	-5237
ouls	-5238
▁(19	-5239
▁Gar	-5240
▁eth	-5241
▁fle	-5242
icide	-5243
▁Hath	-5244
▁blank	-5245
▁spear	-5246
▁deaths	-5247
▁images	-5248
▁terrain	-5249
▁household	-5250
21	-5251
▁Sal	-5252
▁hom	-5253
▁bond	-5254
▁champ	-5255
▁winds	-5256
▁Brooks	-5257
▁female	-5258
▁suffer	-5259
▁advance	-5260
▁boiling	-5261
▁housing	-5262
▁vehicle	-5263
▁exchange	-5264
▁valuable	-5265
_{	-5266
ara	-5267
och	-5268
clus	-5269
▁Tim	-5270
▁dur	-5271
▁odd	-5272
iance	-5273
olved	-5274
▁Duke	-5275
▁milk	-5276
▁tour	-5277
▁dried	-5278
▁grief	-5279
▁pitch	-5280
▁votes	-5281
▁confir	-5282
▁visual	-5283
▁parties	-5284
▁walking	-5285
LO	-5286
hea	-5287
izz	-5288
ario	-5289
ocks	-5290
▁Pac	-5291
cript	-5292
▁Know	-5293
▁tent	-5294
▁expert	-5295
▁height	-5296
▁fathers	-5297
▁putting	-5298
▁traffic	-5299
▁Medicine	-5300
▁executive	-5301
▁explained	-5302
den	-5303
opy	-5304
▁Mag	-5305
▁Sil	-5306
▁Syria	-5307
osition	-5308
ropical	-5309
▁couldn	-5310
▁widely	-5311
▁coordin	-5312
▁depends	-5313
▁exhaust	-5314
▁accident	-5315
▁depending	-5316
▁operation	-5317
%2	-5318
}}	-5319
iot	-5320
oost	-5321
▁alt	-5322
▁jun	-5323
▁oer	-5324
oices	-5325
▁lean	-5326
▁Avoid	-5327
▁attached	-5328
ITY	-5329
What	-5330
▁Cam	-5331
▁ven	-5332
lines	-5333
▁duty	-5334
▁elev	-5335
▁pair	-5336
astern	-5337
▁holds	-5338
▁quiet	-5339
▁eating	-5340
▁winter	-5341
▁planned	-5342
▁mistress	-5343
PA	-5344
inks	-5345
real	-5346
▁fing	-5347
▁impl	-5348
▁wash	-5349
▁loves	-5350
▁caught	-5351
▁narrow	-5352
▁tender	-5353
atically	-5354
▁possess	-5355
▁conscious	-5356
39	-5357
rary	-5358
unte	-5359
▁Art	-5360
▁raw	-5361
allow	-5362
othing	-5363
▁Robert	-5364
▁compress	-5365
▁Conservative	-5366
no	-5367
▁90	-5368
arsh	-5369
▁Los	-5370
▁duke	-5371
▁bones	-5372
▁undert	-5373
▁Despite	-5374
▁treated	-5375
▁standards	-5376
▁professional	-5377
UM	-5378
oyal	-5379
▁hat	-5380
▁hes	-5381
▁Bank	-5382
▁Fort	-5383
▁Work	-5384
▁offers	-5385
▁Instead	-5386
▁conserv	-5387
▁station	-5388
▁negative	-5389
▁committee	-5390
▁remaining	-5391
IG	-5392
Ph	-5393
▁NFL	-5394
▁Sol	-5395
▁tow	-5396
andon	-5397
uated	-5398
▁root	-5399
▁depth	-5400
▁William	-5401
▁mission	-5402
▁discovered	-5403
▁enforcement	-5404
inn	-5405
▁80	-5406
▁Supp	-5407
▁Wood	-5408
▁park	-5409
▁drugs	-5410
▁shell	-5411
▁afford	-5412
▁owners	-5413
yer	-5414
cean	-5415
ingly	-5416
▁rope	-5417
▁sole	-5418
▁asking	-5419
▁belief	-5420
▁purchase	-5421
▁sufficient	-5422
▁du	-5423
▁Ber	-5424
amber	-5425
▁labor	-5426
▁older	-5427
▁shalt	-5428
▁thats	-5429
▁System	-5430
▁powers	-5431
standing	-5432
▁Science	-5433
▁signals	-5434
IM	-5435
rig	-5436
▁35	-5437
icken	-5438
iller	-5439
▁Back	-5440
▁domin	-5441
▁quant	-5442
▁branch	-5443
▁faster	-5444
▁photos	-5445
▁Journal	-5446
▁weekend	-5447
▁Security	-5448
▁ourselves	-5449
▁surrounding	-5450
ading	-5451
ports	-5452
▁hurt	-5453
▁bright	-5454
▁football	-5455
▁possibly	-5456
▁marijuana	-5457
▁scientific	-5458
sl	-5459
but	-5460
sey	-5461
obby	-5462
▁12.	-5463
▁Vol	-5464
itable	-5465
▁guess	-5466
▁laugh	-5467
▁prices	-5468
▁symbol	-5469
▁transl	-5470
▁offered	-5471
▁medicine	-5472
▁CA	-5473
▁iod	-5474
▁Rock	-5475
▁feat	-5476
▁hook	-5477
▁advis	-5478
▁seeds	-5479
eration	-5480
▁begins	-5481
▁encoun	-5482
▁infect	-5483
▁mobile	-5484
▁capable	-5485
▁located	-5486
▁warrant	-5487
▁millions	-5488
▁locations	-5489
PM	-5490
gi	-5491
▁~	-5492
acks	-5493
door	-5494
▁Hur	-5495
▁fif	-5496
▁pil	-5497
cribe	-5498
▁prev	-5499
luding	-5500
▁surve	-5501
▁extent	-5502
▁nearby	-5503
▁clothes	-5504
▁external	-5505
▁intended	-5506
▁suitable	-5507
▁reference	-5508
AST	-5509
met	-5510
▁La	-5511
▁Uk	-5512
ATION	-5513
▁COMM	-5514
▁Group	-5515
▁blind	-5516
▁married	-5517
▁accurate	-5518
▁employees	-5519
▁technique	-5520
htm	-5521
▁CN	-5522
▁PR	-5523
ercy	-5524
wing	-5525
▁dat	-5526
cking	-5527
ooper	-5528
▁Bush	-5529
▁army	-5530
▁cycle	-5531
▁photo	-5532
▁fashion	-5533
▁agreement	-5534
▁discussed	-5535
▁connection	-5536
▁27	-5537
irty	-5538
lege	-5539
▁alb	-5540
▁din	-5541
▁sem	-5542
cknow	-5543
▁blue	-5544
▁roll	-5545
▁Build	-5546
▁defined	-5547
▁detailed	-5548
▁horizontal	-5549
▁differences	-5550
.'	-5551
ctr	-5552
orns	-5553
▁item	-5554
▁grave	-5555
▁served	-5556
▁Central	-5557
▁episode	-5558
▁unknown	-5559
▁religion	-5560
▁extensive	-5561
▁Association	-5562
6)	-5563
▁SE	-5564
▁(0.	-5565
▁Bay	-5566
▁CPR	-5567
▁tor	-5568
▁Miss	-5569
▁Chief	-5570
▁Cover	-5571
▁protest	-5572
▁diameter	-5573
▁partners	-5574
▁seriously	-5575
▁interested	-5576
▁contaminated	-5577
48	-5578
arant	-5579
arden	-5580
indle	-5581
▁bags	-5582
▁maid	-5583
▁sell	-5584
▁fault	-5585
▁paral	-5586
▁dangers	-5587
▁waiting	-5588
▁internet	-5589
▁manufact	-5590
▁comfortable	-5591
ulf	-5592
▁cle	-5593
▁vit	-5594
▁scar	-5595
▁Three	-5596
▁Season	-5597
▁native	-5598
▁unable	-5599
▁window	-5600
▁Against	-5601
▁flowers	-5602
▁illegal	-5603
▁reduced	-5604
hi	-5605
▁Mary	-5606
▁foul	-5607
▁seal	-5608
▁absor	-5609
▁outer	-5610
▁trial	-5611
ception	-5612
▁Should	-5613
▁wealth	-5614
▁assault	-5615
▁consult	-5616
▁freedom	-5617
▁favorite	-5618
▁normally	-5619
▁potentially	-5620
orr	-5621
rey	-5622
win	-5623
RAIN	-5624
athe	-5625
▁16.	-5626
▁Bur	-5627
▁cow	-5628
lined	-5629
▁ears	-5630
▁empt	-5631
▁tied	-5632
anging	-5633
ipping	-5634
▁Using	-5635
▁royal	-5636
ensions	-5637
▁Amazon	-5638
▁bloody	-5639
▁detect	-5640
▁concern	-5641
▁shallow	-5642
▁candidate	-5643
▁Information	-5644
2)	-5645
bert	-5646
ovel	-5647
▁der	-5648
▁wed	-5649
annel	-5650
▁Prof	-5651
▁Human	-5652
▁devil	-5653
▁bought	-5654
▁expand	-5655
▁arrested	-5656
▁suggested	-5657
▁supported	-5658
ota	-5659
▁rid	-5660
▁Team	-5661
▁acts	-5662
▁entr	-5663
▁hero	-5664
▁Remove	-5665
▁poncho	-5666
▁tissue	-5667
▁arrived	-5668
▁calling	-5669
▁occasion	-5670
▁politics	-5671
▁vehicles	-5672
▁Commission	-5673
2-	-5674
And	-5675
▁26	-5676
▁AL	-5677
aded	-5678
▁unw	-5679
enses	-5680
illed	-5681
arters	-5682
▁Found	-5683
▁views	-5684
▁Mexico	-5685
▁motion	-5686
▁promot	-5687
▁install	-5688
▁efficient	-5689
▁regarding	-5690
▁appearance	-5691
▁36	-5692
elly	-5693
oses	-5694
▁Que	-5695
rooms	-5696
▁dare	-5697
▁weep	-5698
▁Techn	-5699
▁grain	-5700
▁kings	-5701
▁notes	-5702
▁teasp	-5703
certain	-5704
▁Africa	-5705
▁Zombie	-5706
▁island	-5707
▁models	-5708
▁seemed	-5709
▁sister	-5710
▁abandon	-5711
▁Practice	-5712
iel	-5713
▁29	-5714
▁Id	-5715
▁JS	-5716
▁VI	-5717
rous	-5718
▁Lou	-5719
▁moon	-5720
▁noise	-5721
▁commit	-5722
▁emphas	-5723
▁pardon	-5724
▁tinder	-5725
▁values	-5726
▁helping	-5727
▁mixture	-5728
▁partner	-5729
▁portion	-5730
▁District	-5731
▁fracture	-5732
fortunately	-5733
▁experienced	-5734
ules	-5735
▁NAS	-5736
▁Tro	-5737
▁nav	-5738
ousin	-5739
▁Gree	-5740
Mormon	-5741
▁solar	-5742
▁trick	-5743
▁Please	-5744
▁corner	-5745
▁incred	-5746
▁pulled	-5747
▁documents	-5748
::	-5749
asy	-5750
ache	-5751
▁Ing	-5752
phone	-5753
▁Asia	-5754
▁fant	-5755
▁susp	-5756
▁tall	-5757
▁urban	-5758
▁airway	-5759
▁filled	-5760
▁territ	-5761
▁vulnerable	-5762
37	-5763
▁Rom	-5764
▁kil	-5765
umber	-5766
▁Flor	-5767
▁Hold	-5768
▁male	-5769
opping	-5770
▁edges	-5771
▁pages	-5772
▁dealing	-5773
▁broadcast	-5774
▁approximately	-5775
ca	-5776
zer	-5777
onic	-5778
enger	-5779
works	-5780
▁lung	-5781
▁Mount	-5782
▁advoc	-5783
▁broke	-5784
▁chain	-5785
▁deter	-5786
▁agreed	-5787
onscious	-5788
▁villain	-5789
▁windows	-5790
▁returned	-5791
▁Christian	-5792
▁confirmed	-5793
▁residents	-5794
▁discussion	-5795
▁Description	-5796
FC	-5797
SP	-5798
lyn	-5799
▁EN	-5800
fire	-5801
▁Its	-5802
▁Jer	-5803
▁Ver	-5804
▁kid	-5805
▁Long	-5806
▁pure	-5807
stream	-5808
▁opened	-5809
▁balance	-5810
▁context	-5811
▁politic	-5812
▁survivors	-5813
▁industrial	-5814
▁television	-5815
▁2:	-5816
foot	-5817
lock	-5818
▁Vir	-5819
▁brown	-5820
▁fixed	-5821
▁tells	-5822
▁missing	-5823
▁volunte	-5824
▁technical	-5825
VER	-5826
onent	-5827
▁lets	-5828
▁Franc	-5829
▁fatal	-5830
▁tough	-5831
▁adults	-5832
▁Consider	-5833
▁audience	-5834
▁customers	-5835
rd	-5836
agn	-5837
hee	-5838
ipl	-5839
ctic	-5840
istry	-5841
▁crew	-5842
▁leaf	-5843
▁Scott	-5844
▁cards	-5845
▁promise	-5846
7)	-5847
LAN	-5848
▁Say	-5849
▁fol	-5850
▁bomb	-5851
▁gear	-5852
▁laid	-5853
▁pool	-5854
▁Elect	-5855
▁college	-5856
▁conclud	-5857
▁Internet	-5858
▁specifically	-5859
To	-5860
/10.	-5861
made	-5862
▁AID	-5863
▁Bow	-5864
▁Hon	-5865
▁Ref	-5866
▁2009	-5867
▁Cass	-5868
▁Prov	-5869
▁reli	-5870
coming	-5871
▁covers	-5872
▁Angeles	-5873
▁harvest	-5874
▁proposed	-5875
▁estimated	-5876
▁interests	-5877
▁destruction	-5878
▁vulnerability	-5879
agon	-5880
▁defe	-5881
▁distur	-5882
▁counsel	-5883
▁largely	-5884
▁proceed	-5885
▁Archived	-5886
▁branches	-5887
▁opportun	-5888
▁somewhat	-5889
▁Community	-5890
▁reporting	-5891
As	-5892
▁−	-5893
suit	-5894
ught	-5895
▁Pet	-5896
idden	-5897
▁Gold	-5898
▁cart	-5899
▁Watch	-5900
ography	-5901
▁physic	-5902
▁worthy	-5903
▁protected	-5904
▁experiment	-5905
28	-5906
5)	-5907
MS	-5908
But	-5909
pass	-5910
▁Tre	-5911
▁marry	-5912
▁negot	-5913
▁sales	-5914
ruption	-5915
▁filter	-5916
▁teacher	-5917
26	-5918
TS	-5919
▁!	-5920
500	-5921
edy	-5922
▁00	-5923
▁Oh	-5924
ashed	-5925
▁Mart	-5926
▁prey	-5927
▁Liber	-5928
▁Photo	-5929
▁alleg	-5930
▁brush	-5931
▁stars	-5932
▁doctor	-5933
▁fourth	-5934
▁listed	-5935
▁manage	-5936
▁digital	-5937
▁dollars	-5938
▁majesty	-5939
▁managed	-5940
▁threats	-5941
▁visible	-5942
▁absolutely	-5943
29	-5944
34	-5945
awn	-5946
war	-5947
cked	-5948
▁Still	-5949
▁phase	-5950
▁vision	-5951
▁Justice	-5952
▁shooting	-5953
▁defensive	-5954
doi	-5955
▁$1	-5956
▁Ma	-5957
appe	-5958
ilit	-5959
▁GOP	-5960
▁Squ	-5961
▁ham	-5962
▁sor	-5963
▁anch	-5964
▁Prime	-5965
▁alert	-5966
▁juice	-5967
▁rough	-5968
▁simpl	-5969
▁listen	-5970
▁prompt	-5971
▁satisf	-5972
▁infrast	-5973
▁entertain	-5974
▁expensive	-5975
▁performed	-5976
▁USA	-5977
▁cro	-5978
agues	-5979
while	-5980
▁Find	-5981
▁recon	-5982
▁Island	-5983
▁Safety	-5984
▁finger	-5985
▁struck	-5986
aredness	-5987
▁accused	-5988
▁ancient	-5989
▁carrying	-5990
▁combined	-5991
▁revealed	-5992
▁abortions	-5993
▁temporary	-5994
ey	-5995
how	-5996
life	-5997
ocol	-5998
osen	-5999
▁Jim	-6000
▁mig	-6001
azine	-6002
rical	-6003
▁aside	-6004
▁brand	-6005
▁beauty	-6006
▁deadly	-6007
▁wearing	-6008
▁background	-6009
They	-6010
uted	-6011
▁gap	-6012
ppers	-6013
▁RESP	-6014
▁oath	-6015
▁tact	-6016
▁About	-6017
▁arrow	-6018
▁drawn	-6019
▁knock	-6020
▁pulse	-6021
▁annual	-6022
▁elimin	-6023
▁hearts	-6024
▁posted	-6025
▁pounds	-6026
▁Florida	-6027
▁encoura	-6028
▁machine	-6029
▁confident	-6030
▁distribution	-6031
SC	-6032
pub	-6033
▁Ro	-6034
etch	-6035
▁Had	-6036
▁Top	-6037
antly	-6038
▁Mont	-6039
▁Local	-6040
▁agent	-6041
▁feels	-6042
▁launch	-6043
▁commission	-6044
TIC	-6045
▁3,	-6046
apse	-6047
▁Unt	-6048
▁doi	-6049
antic	-6050
ashes	-6051
▁ment	-6052
isation	-6053
▁Palest	-6054
ployment	-6055
▁Francis	-6056
▁Special	-6057
▁download	-6058
▁neighbor	-6059
▁priority	-6060
▁Sometimes	-6061
▁FairMormon	-6062
38	-6063
FF	-6064
vy	-6065
acc	-6066
ari	-6067
nic	-6068
▁4>	-6069
▁18.	-6070
▁sky	-6071
▁tea	-6072
vised	-6073
▁Till	-6074
▁fold	-6075
ishing	-6076
▁Paris	-6077
▁grows	-6078
▁keeps	-6079
▁Mormon	-6080
▁acknow	-6081
▁Bitcoin	-6082
▁focused	-6083
▁witness	-6084
▁monitoring	-6085
▁Ingredients	-6086
bal	-6087
ifle	-6088
that	-6089
umes	-6090
ygen	-6091
▁ber	-6092
berry	-6093
stein	-6094
▁coff	-6095
▁sets	-6096
▁ther	-6097
▁Carol	-6098
▁banks	-6099
▁teeth	-6100
▁univers	-6101
▁destroyed	-6102
▁components	-6103
27	-6104
race	-6105
▁Jud	-6106
▁Jul	-6107
▁rst	-6108
eness	-6109
rible	-6110
▁Wall	-6111
▁grab	-6112
▁Image	-6113
▁micro	-6114
▁sheet	-6115
▁funnel	-6116
▁sorrow	-6117
▁Hillary	-6118
▁dropped	-6119
▁nations	-6120
▁sitting	-6121
▁announce	-6122
▁launched	-6123
▁outbreak	-6124
-4	-6125
TT	-6126
bb	-6127
tr	-6128
pet	-6129
tion	-6130
▁Leg	-6131
▁rig	-6132
▁van	-6133
itors	-6134
▁seat	-6135
▁tack	-6136
▁plays	-6137
▁cancer	-6138
▁Further	-6139
▁passion	-6140
▁spindle	-6141
▁survivor	-6142
▁watching	-6143
▁resulting	-6144
▁controvers	-6145
▁infrastructure	-6146
spe	-6147
▁1⁄2	-6148
▁2019	-6149
▁Sing	-6150
▁bask	-6151
▁east	-6152
▁mush	-6153
▁grown	-6154
berries	-6155
▁Social	-6156
▁extrem	-6157
▁killing	-6158
▁maximum	-6159
▁passing	-6160
▁pointed	-6161
▁streets	-6162
▁Canadian	-6163
▁findings	-6164
▁moisture	-6165
▁suggests	-6166
?"	-6167
ula	-6168
▁Spr	-6169
arded	-6170
▁Lead	-6171
▁luck	-6172
▁rein	-6173
▁RESPON	-6174
▁Unless	-6175
▁reject	-6176
▁yellow	-6177
▁anxiety	-6178
▁herself	-6179
▁typical	-6180
▁determined	-6181
▁implementation	-6182
ym	-6183
rive	-6184
▁Dou	-6185
▁MAR	-6186
▁Chic	-6187
▁NGOs	-6188
▁Oper	-6189
▁mock	-6190
▁shaft	-6191
▁COMMUN	-6192
▁closer	-6193
▁flight	-6194
▁gently	-6195
▁instit	-6196
▁prosec	-6197
▁rescuer	-6198
▁victory	-6199
▁speaking	-6200
▁Secretary	-6201
▁constrict	-6202
0)	-6203
3)	-6204
▁75	-6205
▁WH	-6206
▁Holl	-6207
▁Show	-6208
▁wilt	-6209
mental	-6210
▁lying	-6211
▁moves	-6212
▁plain	-6213
▁shift	-6214
▁shore	-6215
ributed	-6216
▁Skills	-6217
▁Sumner	-6218
▁layers	-6219
▁losses	-6220
▁illness	-6221
▁sustain	-6222
▁permanent	-6223
▁primarily	-6224
▁combination	-6225
97	-6226
ami	-6227
bel	-6228
ifi	-6229
sun	-6230
ajor	-6231
▁13.	-6232
▁Set	-6233
▁sav	-6234
▁Camp	-6235
▁stom	-6236
person	-6237
▁album	-6238
▁split	-6239
▁stood	-6240
▁units	-6241
▁Always	-6242
▁Review	-6243
▁burned	-6244
▁sector	-6245
▁Sanders	-6246
▁driving	-6247
▁fingers	-6248
▁trained	-6249
▁committed	-6250
▁generation	-6251
▁opportunities	-6252
lo	-6253
col	-6254
iples	-6255
▁bold	-6256
▁iron	-6257
ancing	-6258
▁craft	-6259
▁incor	-6260
liament	-6261
▁Contin	-6262
▁remained	-6263
▁presented	-6264
▁competition	-6265
▁governments	-6266
!!	-6267
ini	-6268
mun	-6269
****	-6270
math	-6271
▁vom	-6272
adequ	-6273
▁Next	-6274
▁cars	-6275
▁vast	-6276
iously	-6277
▁stake	-6278
▁breaks	-6279
▁explan	-6280
▁Pacific	-6281
▁accompl	-6282
▁seasons	-6283
▁testing	-6284
▁Guidelines	-6285
▁significantly	-6286
yd	-6287
mers	-6288
▁Dec	-6289
▁Mur	-6290
▁Open	-6291
▁glad	-6292
unning	-6293
▁kinds	-6294
▁Theres	-6295
▁sovere	-6296
▁volume	-6297
▁confirm	-6298
▁library	-6299
▁turning	-6300
▁Director	-6301
▁Response	-6302
▁accounts	-6303
▁commonly	-6304
▁extended	-6305
▁connected	-6306
▁introduced	-6307
▁investment	-6308
▁considering	-6309
▁dehydration	-6310
ses	-6311
▁Sn	-6312
anks	-6313
west	-6314
▁Arab	-6315
▁Dead	-6316
▁Home	-6317
▁Were	-6318
▁pity	-6319
▁tape	-6320
▁empty	-6321
▁habit	-6322
▁print	-6323
▁ordered	-6324
▁telling	-6325
▁professor	-6326
AA	-6327
bo	-6328
bar	-6329
she	-6330
igen	-6331
▁Ari	-6332
▁Mer	-6333
▁Try	-6334
▁Care	-6335
▁Free	-6336
▁Tell	-6337
▁dece	-6338
▁mild	-6339
▁writ	-6340
lihood	-6341
orpion	-6342
▁Micro	-6343
ologies	-6344
▁oxygen	-6345
▁safely	-6346
▁periods	-6347
▁improved	-6348
▁observed	-6349
▁controlled	-6350
▁departments	-6351
DP	-6352
TR	-6353
noon	-6354
roll	-6355
▁Aid	-6356
▁ast	-6357
▁Form	-6358
▁prin	-6359
▁Joseph	-6360
▁blocks	-6361
▁muscle	-6362
▁placing	-6363
▁bringing	-6364
▁pleasure	-6365
▁conducted	-6366
▁wilderness	-6367
aza	-6368
hew	-6369
van	-6370
▁DE	-6371
racy	-6372
wick	-6373
estic	-6374
icted	-6375
▁Stay	-6376
▁bund	-6377
▁phil	-6378
▁sake	-6379
▁Whose	-6380
▁capture	-6381
▁enemies	-6382
▁seeking	-6383
▁village	-6384
▁advanced	-6385
▁shoulder	-6386
▁tropical	-6387
▁initially	-6388
▁involving	-6389
▁reasonable	-6390
iac	-6391
char	-6392
eech	-6393
▁Ter	-6394
▁gay	-6395
▁Four	-6396
▁cash	-6397
iences	-6398
▁chart	-6399
▁leads	-6400
ificial	-6401
▁Virgin	-6402
▁academ	-6403
▁College	-6404
▁brothers	-6405
▁guidelines	-6406
▁Tit	-6407
▁cab	-6408
▁jump	-6409
▁Power	-6410
▁proof	-6411
▁toxic	-6412
▁decade	-6413
▁vessels	-6414
▁complain	-6415
▁protective	-6416
▁supporting	-6417
:00	-6418
▁Kn	-6419
ilty	-6420
oral	-6421
▁14.	-6422
▁Dig	-6423
▁Kim	-6424
isted	-6425
ithee	-6426
▁Ryan	-6427
▁calm	-6428
▁ease	-6429
ensity	-6430
▁Korea	-6431
▁arter	-6432
▁disin	-6433
▁funds	-6434
▁goods	-6435
▁cousin	-6436
▁desper	-6437
▁forgot	-6438
aturally	-6439
▁Islamic	-6440
▁unlikely	-6441
▁offensive	-6442
▁revolution	-6443
▁scientists	-6444
▁thoroughly	-6445
▁preparation	-6446
sm	-6447
born	-6448
cles	-6449
pret	-6450
▁Cup	-6451
▁Lee	-6452
▁Nut	-6453
▁suc	-6454
▁boys	-6455
▁loop	-6456
▁west	-6457
iverse	-6458
▁Whats	-6459
▁armed	-6460
▁ideal	-6461
▁perce	-6462
▁roads	-6463
▁favour	-6464
▁losing	-6465
▁aggress	-6466
▁recover	-6467
▁trigger	-6468
▁northern	-6469
▁percentage	-6470
▁Development	-6471
EW	-6472
Tr	-6473
’,	-6474
abor	-6475
mosp	-6476
▁enh	-6477
▁mud	-6478
▁holy	-6479
▁jack	-6480
▁Progr	-6481
▁Sever	-6482
▁Study	-6483
▁eaten	-6484
▁withd	-6485
unction	-6486
▁Indeed	-6487
▁butter	-6488
▁harder	-6489
▁reform	-6490
▁greatly	-6491
▁preparing	-6492
”,	-6493
▁NH	-6494
:10.	-6495
▁Tie	-6496
▁zone	-6497
▁Peter	-6498
▁faces	-6499
iations	-6500
respond	-6501
▁bigger	-6502
▁dispos	-6503
▁racial	-6504
▁thrust	-6505
▁guarant	-6506
8)	-6507
▁Ah	-6508
gypt	-6509
leep	-6510
oufl	-6511
rors	-6512
soft	-6513
erves	-6514
onald	-6515
world	-6516
▁Stan	-6517
▁wars	-6518
▁Jones	-6519
▁taxes	-6520
▁facing	-6521
▁mainly	-6522
▁speaks	-6523
▁theres	-6524
▁imagine	-6525
▁stomach	-6526
▁involves	-6527
▁substant	-6528
BN	-6529
pd	-6530
osh	-6531
uns	-6532
kins	-6533
ailed	-6534
anges	-6535
ether	-6536
▁brave	-6537
▁spots	-6538
clusion	-6539
pending	-6540
▁assume	-6541
▁refuge	-6542
▁Western	-6543
▁paralle	-6544
▁encounter	-6545
▁recognize	-6546
▁recognized	-6547
▁independent	-6548
▁70	-6549
▁\)	-6550
igan	-6551
inet	-6552
▁BBC	-6553
▁Str	-6554
▁beer	-6555
▁dish	-6556
▁vine	-6557
inging	-6558
▁Network	-6559
▁bearing	-6560
▁figures	-6561
▁handling	-6562
▁suffered	-6563
▁afternoon	-6564
▁collected	-6565
▁newspaper	-6566
▁concerning	-6567
▁conservative	-6568
▁increasingly	-6569
MO	-6570
PD	-6571
-10	-6572
▁spo	-6573
▁neer	-6574
▁roles	-6575
▁Report	-6576
▁thinks	-6577
▁knowing	-6578
▁contrast	-6579
▁patience	-6580
▁COMMUNITY	-6581
▁existence	-6582
SA	-6583
▁Wr	-6584
acle	-6585
olic	-6586
▁Bas	-6587
▁Tal	-6588
stone	-6589
▁knee	-6590
▁meal	-6591
▁plus	-6592
encing	-6593
▁Start	-6594
▁Effect	-6595
▁Having	-6596
▁paying	-6597
▁remote	-6598
▁thread	-6599
▁changing	-6600
▁entrance	-6601
▁finished	-6602
▁challenges	-6603
▁regulations	-6604
ML	-6605
▁Po	-6606
gree	-6607
ifts	-6608
rete	-6609
▁Den	-6610
abric	-6611
irect	-6612
ville	-6613
▁(200	-6614
▁ride	-6615
amples	-6616
▁Today	-6617
▁falls	-6618
▁topic	-6619
▁Assess	-6620
▁Econom	-6621
▁bacter	-6622
▁belong	-6623
▁famous	-6624
▁council	-6625
▁suicide	-6626
▁emotional	-6627
▁evaluation	-6628
▁electricity	-6629
▁Preparedness	-6630
▁applications	-6631
ka	-6632
def	-6633
usc	-6634
▁Gal	-6635
▁Men	-6636
▁Game	-6637
▁maps	-6638
▁Egypt	-6639
▁Louis	-6640
▁Prote	-6641
▁TRAIN	-6642
▁angry	-6643
▁error	-6644
ocation	-6645
▁Edward	-6646
▁formed	-6647
▁medium	-6648
▁movies	-6649
▁rising	-6650
▁southern	-6651
▁contained	-6652
▁practices	-6653
/4	-6654
TA	-6655
afe	-6656
bles	-6657
erts	-6658
otic	-6659
▁Sea	-6660
andel	-6661
▁Love	-6662
▁loud	-6663
ilized	-6664
▁spark	-6665
▁bitter	-6666
▁Federal	-6667
itutional	-6668
▁Palestin	-6669
▁Australian	-6670
▁institutions	-6671
▁psychological	-6672
57	-6673
64	-6674
ya	-6675
plete	-6676
sters	-6677
▁thro	-6678
▁flour	-6679
▁initi	-6680
olester	-6681
▁regist	-6682
▁stable	-6683
▁closely	-6684
▁hunting	-6685
▁liberal	-6686
▁markets	-6687
▁highlight	-6688
▁confidence	-6689
▁illustrated	-6690
▁recommended	-6691
33	-6692
imp	-6693
uzz	-6694
▁1-	-6695
▁AD	-6696
▁tu	-6697
rick	-6698
▁Sam	-6699
▁hem	-6700
▁2008	-6701
▁Card	-6702
ieties	-6703
makers	-6704
rehens	-6705
▁Asian	-6706
▁boost	-6707
▁label	-6708
▁sauce	-6709
▁breast	-6710
▁brings	-6711
▁conver	-6712
▁stores	-6713
▁applying	-6714
▁attorney	-6715
▁warnings	-6716
▁biological	-6717
----------------	-6718
▁IV	-6719
omed	-6720
▁Atl	-6721
▁Wear	-6722
▁bait	-6723
▁deny	-6724
▁Being	-6725
▁Roman	-6726
▁arise	-6727
▁sports	-6728
▁confess	-6729
▁session	-6730
olesterol	-6731
▁indicated	-6732
▁ultimately	-6733
KE	-6734
TC	-6735
dy	-6736
care	-6737
road	-6738
▁Fam	-6739
▁Low	-6740
▁dow	-6741
▁mask	-6742
▁tail	-6743
ivered	-6744
▁Among	-6745
▁Civil	-6746
▁drops	-6747
▁imper	-6748
▁waves	-6749
▁worry	-6750
▁attach	-6751
▁basket	-6752
▁chamber	-6753
▁tightly	-6754
▁Ultimate	-6755
▁entering	-6756
▁numerous	-6757
▁obtained	-6758
▁teaspoon	-6759
▁administr	-6760
▁collection	-6761
ishd	-6762
▁Fox	-6763
▁Mos	-6764
▁ANTI	-6765
▁Fall	-6766
▁Heat	-6767
▁surf	-6768
ricult	-6769
▁River	-6770
▁bears	-6771
▁filed	-6772
▁march	-6773
▁panel	-6774
pective	-6775
▁Andrew	-6776
▁Prepar	-6777
▁lights	-6778
▁update	-6779
ritional	-6780
▁Britain	-6781
▁Natural	-6782
▁heavily	-6783
itionally	-6784
▁discover	-6785
▁RESPONDER	-6786
ato	-6787
▁PC	-6788
▁Ann	-6789
▁Bus	-6790
orous	-6791
▁baby	-6792
▁clin	-6793
▁soap	-6794
▁unus	-6795
degree	-6796
▁Object	-6797
▁latter	-6798
▁Chicago	-6799
▁TRAINING	-6800
▁agricult	-6801
▁promised	-6802
▁constantly	-6803
AB	-6804
rip	-6805
▁od	-6806
That	-6807
arms	-6808
cend	-6809
fish	-6810
ohyd	-6811
onto	-6812
▁ACT	-6813
▁ton	-6814
▁wra	-6815
giene	-6816
▁insp	-6817
▁isol	-6818
▁sons	-6819
▁herbs	-6820
▁Antony	-6821
▁Church	-6822
▁atmosp	-6823
▁praise	-6824
▁channel	-6825
▁ongoing	-6826
▁definitely	-6827
gon	-6828
avor	-6829
▁Has	-6830
▁KING	-6831
▁flex	-6832
iments	-6833
▁Harry	-6834
▁veter	-6835
▁Within	-6836
▁column	-6837
▁shadow	-6838
▁stones	-6839
▁waters	-6840
▁beseech	-6841
▁intense	-6842
▁subsequ	-6843
▁recorded	-6844
▁correspond	-6845
▁resolution	-6846
.-	-6847
▁%	-6848
ATE	-6849
For	-6850
lig	-6851
ths	-6852
gent	-6853
▁Sug	-6854
▁hyd	-6855
bohyd	-6856
▁2000	-6857
▁lots	-6858
▁Notes	-6859
▁frust	-6860
covered	-6861
utation	-6862
▁Middle	-6863
▁acting	-6864
▁dinner	-6865
▁houses	-6866
▁proved	-6867
▁openings	-6868
49	-6869
ye	-6870
ava	-6871
obe	-6872
When	-6873
anta	-6874
then	-6875
▁17.	-6876
▁rac	-6877
lfare	-6878
▁Must	-6879
▁logs	-6880
▁pine	-6881
▁datab	-6882
▁hopes	-6883
▁lungs	-6884
▁owner	-6885
legraph	-6886
▁virtue	-6887
adequate	-6888
▁Finally	-6889
▁trapped	-6890
▁welfare	-6891
▁suddenly	-6892
▁expressed	-6893
▁receiving	-6894
▁expression	-6895
▁repeatedly	-6896
▁consequences	-6897
▁constricting	-6898
:0	-6899
ERS	-6900
ugg	-6901
▁(-	-6902
anes	-6903
mbly	-6904
ogue	-6905
olve	-6906
page	-6907
▁Ext	-6908
▁PAR	-6909
▁hol	-6910
▁nom	-6911
claim	-6912
▁Evac	-6913
▁damp	-6914
▁fears	-6915
▁https	-6916
▁mercy	-6917
▁bottle	-6918
▁precise	-6919
▁approved	-6920
▁believes	-6921
▁mountain	-6922
▁patterns	-6923
▁Hurricane	-6924
▁primitive	-6925
▁waterproof	-6926
▁$2	-6927
▁DO	-6928
▁ta	-6929
aren	-6930
ingu	-6931
ouch	-6932
▁pin	-6933
▁cere	-6934
▁murd	-6935
▁sail	-6936
▁fired	-6937
▁fluid	-6938
▁holes	-6939
▁shots	-6940
▁volcan	-6941
▁Servings	-6942
▁category	-6943
▁division	-6944
▁governor	-6945
▁referred	-6946
▁selected	-6947
▁struggle	-6948
▁businesses	-6949
▁definition	-6950
▁unconscious	-6951
CC	-6952
UE	-6953
▁CL	-6954
ieve	-6955
iner	-6956
nger	-6957
uled	-6958
acles	-6959
asant	-6960
▁begg	-6961
▁knot	-6962
▁faced	-6963
▁chosen	-6964
▁enable	-6965
▁Several	-6966
▁winning	-6967
▁declared	-6968
▁gracious	-6969
▁delivered	-6970
▁happening	-6971
▁profession	-6972
ias	-6973
▁LE	-6974
▁Hab	-6975
▁Joe	-6976
▁dim	-6977
raine	-6978
▁Navy	-6979
▁dogs	-6980
▁dram	-6981
▁mans	-6982
▁rose	-6983
terday	-6984
▁multi	-6985
▁sched	-6986
▁weigh	-6987
ogether	-6988
▁advent	-6989
▁intent	-6990
▁manual	-6991
▁planet	-6992
▁evening	-6993
▁readily	-6994
▁revenue	-6995
▁Microsoft	-6996
▁continuous	-6997
▁participants	-6998
ua	-6999
▁	-7000
e	-7001
t	-7002
a	-7003
o	-7004
i	-7005
n	-7006
s	-7007
r	-7008
h	-7009
l	-7010
d	-7011
c	-7012
u	-7013
m	-7014
f	-7015
p	-7016
g	-7017
y	-7018
w	-7019
b	-7020
,	-7021
.	-7022
v	-7023
k	-7024
T	-7025
I	-7026
A	-7027
S	-7028
-	-7029
C	-7030
1	-7031
0	-7032
M	-7033
x	-7034
E	-7035
P	-7036
R	-7037
2	-7038
W	-7039
B	-7040
:	-7041
N	-7042
D	-7043
O	-7044
H	-7045
F	-7046
L	-7047
)	-7048
(	-7049
’	-7050
'	-7051
j	-7052
G	-7053
U	-7054
"	-7055
3	-7056
q	-7057
z	-7058
5	-7059
4	-7060
/	-7061
?	-7062
9	-7063
Y	-7064
6	-7065
J	-7066
7	-7067
8	-7068
“	-7069
K	-7070
”	-7071
V	-7072
!	-7073
;	-7074
=	-7075
—	-7076
_	-7077
–	-7078
Q	-7079
*	-7080
$	-7081
]	-7082
[	-7083
X	-7084
%	-7085
Z	-7086
▄	-7087
>	-7088
\	-7089
«	-7090
<	-7091
‘	-7092
}	-7093
{	-7094
&	-7095
^	-7096
+	-7097
£	-7098
@	-7099
■	-7100
#	-7101
°	-7102
|	-7103
»	-7104
é	-7105
~	-7106
✓	-7107
●	-7108
⁄	-7109
ö	-7110
©	-7111
ä	-7112
§	-7113
ü	-7114
−	-7115
®	-7116
Ü	-7117
о	-7118
Ä	-7119
а	-7120
и	-7121
е	-7122
‐	-7123
′	-7124
á	-7125
„	-7126
н	-7127
×	-7128
å	-7129
이	-7130
с	-7131
▓	-7132
다	-7133
한	-7134
`	-7135
€	-7136
Ö	-7137
ñ	-7138
지	-7139
˽	-7140
р	-7141
하	-7142
т	-7143
수	-7144
에	-7145
ó	-7146
к	-7147
л	-7148
들	-7149
í	-7150
≤	-7151
선	-7152
은	-7153
†	-7154
을	-7155
в	-7156
	-7157
	-7158
는	-7159
ç	-7160
м	-7161
ō	-7162
ε	-7163
의	-7164
해	-7165
д	-7166
א	-7167
고	-7168
기	-7169
대	-7170
ı	-7171
로	-7172
를	-7173
만	-7174
α	-7175
­	-7176
ž	-7177
θ	-7178
≥	-7179
출	-7180
¶	-7181
Ž	-7182
п	-7183
	-7184
ø	-7185
∂	-7186
전	-7187
	-7188
у	-7189
ы	-7190
했	-7191
±	-7192
è	-7193
̊	-7194
ß	-7195
인	-7196
행	-7197
회	-7198
금	-7199
δ	-7200
з	-7201
국	-7202
ρ	-7203
я	-7204
러	-7205
·	-7206
й	-7207
►	-7208
가	-7209
상	-7210
서	-7211
ã	-7212
φ	-7213
б	-7214
	-7215
à	-7216
경	-7217
과	-7218
그	-7219
도	-7220
비	-7221
시	-7222
	-7223
ū	-7224
π	-7225
μ	-7226
♦	-7227
달	-7228
보	-7229
으	-7230
진	-7231
É	-7232
	-7233
게	-7234
ş	-7235
г	-7236
🙂	-7237
ā	-7238
ь	-7239
゚	-7240
라	-7241
않	-7242
위	-7243
최	-7244
Ł	-7245
λ	-7246
х	-7247
∼	-7248
제	-7249
공	-7250
급	-7251
약	-7252
용	-7253
정	-7254
화	-7255
ú	-7256
ч	-7257
→	-7258
ê	-7259
š	-7260
ю	-7261
★	-7262
・	-7263
나	-7264
외	-7265
요	-7266
있	-7267
즌	-7268
증	-7269
¥	-7270
ë	-7271
	-7272
́	-7273
결	-7274
당	-7275
부	-7276
우	-7277
원	-7278
임	-7279
	-7280
	-7281
Ø	-7282
ğ	-7283
↩	-7284
Ð	-7285
Ó	-7286
ï	-7287
č	-7288
ψ	-7289
ц	-7290
‡	-7291
⁡	-7292
↑	-7293
▪	-7294
文	-7295
赵	-7296
것	-7297
겠	-7298
계	-7299
구	-7300
까	-7301
면	-7302
스	-7303
야	-7304
적	-7305
천	-7306
치	-7307
	-7308
Đ	-7309
ł	-7310
ф	-7311
щ	-7312
ا	-7313
◊	-7314
中	-7315
皇	-7316
미	-7317
어	-7318
Ç	-7319
â	-7320
ė	-7321
Σ	-7322
ב	-7323
∀	-7324
∈	-7325
⋅	-7326
人	-7327
널	-7328
단	-7329
돈	-7330
동	-7331
되	-7332
드	-7333
랜	-7334
리	-7335
마	-7336
모	-7337
받	-7338
방	-7339
배	-7340
불	-7341
세	-7342
신	-7343
았	-7344
여	-7345
온	-7346
월	-7347
자	-7348
중	-7349
파	-7350
표	-7351
현	-7352
	-7353
Á	-7354
Š	-7355
ż	-7356
ш	-7357
э	-7358
ر	-7359
ل	-7360
و	-7361
―	-7362
家	-7363
	-7364
Æ	-7365
Î	-7366
Ñ	-7367
æ	-7368
ò	-7369
Ą	-7370
Ć	-7371
Ĉ	-7372
Č	-7373
Ę	-7374
Ĥ	-7375
İ	-7376
Ń	-7377
ś	-7378
ν	-7379
ω	-7380
د	-7381
ง	-7382
า	-7383
‰	-7384
↦	-7385
大	-7386
근	-7387
던	-7388
된	-7389
등	-7390
또	-7391
려	-7392
벌	-7393
사	-7394
숙	-7395
순	-7396
식	-7397
아	-7398
억	-7399
었	-7400
열	-7401
와	-7402
일	-7403
장	-7404
저	-7405
조	-7406
직	-7407
체	-7408
초	-7409
태	-7410
포	-7411
프	-7412
필	-7413
할	-7414
	-7415
	-7416
Å	-7417
È	-7418
ô	-7419
ý	-7420
ą	-7421
ć	-7422
đ	-7423
ń	-7424
ː	-7425
β	-7426
γ	-7427
С	-7428
ن	-7429
ی	-7430
ṇ	-7431
ṣ	-7432
℘	-7433
天	-7434
À	-7435
ð	-7436
Ŝ	-7437
Ş	-7438
Ŭ	-7439
Ψ	-7440
η	-7441
П	-7442
Ъ	-7443
Ь	-7444
ъ	-7445
ล	-7446
อ	-7447
∞	-7448
ノ	-7449
年	-7450
語	-7451
감	-7452
같	-7453
걸	-7454
돌	-7455
됐	-7456
든	-7457
료	-7458
막	-7459
맞	-7460
며	-7461
명	-7462
못	-7463
박	-7464
본	-7465
송	-7466
승	-7467
실	-7468
안	-7469
액	-7470
없	-7471
연	-7472
영	-7473
올	-7474
운	-7475
유	-7476
익	-7477
재	-7478
절	-7479
접	-7480
좋	-7481
주	-7482
참	-7483
츠	-7484
측	-7485
콘	-7486
터	-7487
텐	-7488
통	-7489
팀	-7490
항	-7491
확	-7492
활	-7493
ę	-7494
Ś	-7495
ˈ	-7496
ο	-7497
σ	-7498
А	-7499
Д	-7500
Р	-7501
Э	-7502
ж	-7503
כ	-7504
ب	-7505
ာ	-7506
ლ	-7507
ⵏ	-7508
ⵓ	-7509
、	-7510
。	-7511
国	-7512
學	-7513
本	-7514
東	-7515
版	-7516
生	-7517
的	-7518
真	-7519
레	-7520
🇸	-7521
🇺	-7522
😉	-7523
Þ	-7524
÷	-7525
ù	-7526
þ	-7527
ĉ	-7528
ē	-7529
Ĝ	-7530
ĝ	-7531
ĥ	-7532
ī	-7533
Ĵ	-7534
ĵ	-7535
œ	-7536
ŝ	-7537
ŭ	-7538
Ź	-7539
ź	-7540
Ż	-7541
ɑ	-7542
ɛ	-7543
ɡ	-7544
̄	-7545
̔	-7546
έ	-7547
Б	-7548
Ж	-7549
З	-7550
К	-7551
М	-7552
Т	-7553
Х	-7554
Ц	-7555
Ы	-7556
ե	-7557
י	-7558
מ	-7559
ת	-7560
ت	-7561
س	-7562
ع	-7563
ف	-7564
م	-7565
َ	-7566
ी	-7567
া	-7568
ก	-7569
ด	-7570
ส	-7571
မ	-7572
ა	-7573
ῠ	-7574
↓	-7575
↔	-7576
∃	-7577
∣	-7578
∫	-7579
≈	-7580
≠	-7581
╹	-7582
□	-7583
☆	-7584
♡	-7585
✉	-7586
❮	-7587
❯	-7588
ⴱ	-7589
ⴻ	-7590
ⵄ	-7591
ⵍ	-7592
ⵎ	-7593
ⵙ	-7594
つ	-7595
三	-7596
上	-7597
之	-7598
京	-7599
代	-7600
们	-7601
体	-7602
元	-7603
农	-7604
后	-7605
善	-7606
四	-7607
國	-7608
太	-7609
存	-7610
学	-7611
宮	-7612
帝	-7613
平	-7614
徳	-7615
日	-7616
法	-7617
波	-7618
津	-7619
繁	-7620
红	-7621
術	-7622
衛	-7623
近	-7624
體	-7625
간	-7626
개	-7627
거	-7628
겨	-7629
곰	-7630
관	-7631
교	-7632
길	-7633
꾀	-7634
난	-7635
내	-7636
너	-7637
넓	-7638
느	-7639
더	-7640
두	-7641
디	-7642
따	-7643
때	-7644
란	-7645
래	-7646
램	-7647
럼	-7648
렇	-7649
렉	-7650
렸	-7651
롤	-7652
룰	-7653
르	-7654
릴	-7655
림	-7656
말	-7657
망	-7658
매	-7659
먼	-7660
무	-7661
물	-7662
민	-7663
바	-7664
반	-7665
발	-7666
밝	-7667
버	-7668
번	-7669
벤	-7670
벽	-7671
변	-7672
별	-7673
병	-7674
분	-7675
삭	-7676
삼	-7677
새	-7678
생	-7679
설	-7680
셈	-7681
션	-7682
소	-7683
속	-7684
슬	-7685
습	-7686
슷	-7687
심	-7688
씩	-7689
악	-7690
애	-7691
앨	-7692
양	-7693
얻	-7694
업	-7695
엉	-7696
역	-7697
예	-7698
욱	-7699
윤	-7700
음	-7701
입	-7702
잇	-7703
잊	-7704
잔	-7705
족	-7706
종	-7707
준	-7708
줄	-7709
질	-7710
째	-7711
착	-7712
찬	-7713
창	-7714
철	-7715
청	-7716
총	-7717
추	-7718
춰	-7719
컨	-7720
콜	-7721
클	-7722
트	-7723
틀	-7724
편	-7725
폭	-7726
풀	-7727
픽	-7728
함	-7729
합	-7730
험	-7731
혔	-7732
호	-7733
홀	-7734
환	-7735
후	-7736
️	-7737
🍴	-7738
🐒	-7739
😍	-7740
	-7741
¢	-7742
¦	-7743
¬	-7744
Â	-7745
Í	-7746
û	-7747
ă	-7748
ř	-7749
ų	-7750
ș	-7751
ə	-7752
ʊ	-7753
Δ	-7754
Ε	-7755
Λ	-7756
Ξ	-7757
Π	-7758
ά	-7759
ι	-7760
κ	-7761
ς	-7762
Г	-7763
О	-7764
У	-7765
Ф	-7766
і	-7767
ї	-7768
ա	-7769
հ	-7770
յ	-7771
ն	-7772
ր	-7773
ה	-7774
ו	-7775
ח	-7776
ל	-7777
ם	-7778
ן	-7779
ע	-7780
ר	-7781
أ	-7782
ح	-7783
ط	-7784
ق	-7785
ك	-7786
ه	-7787
ي	-7788
ّ	-7789
ْ	-7790
پ	-7791
ښ	-7792
ک	-7793
ە	-7794
ठ	-7795
द	-7796
न	-7797
म	-7798
र	-7799
ह	-7800
ा	-7801
ि	-7802
्	-7803
ং	-7804
ব	-7805
ল	-7806
ਜ	-7807
ਪ	-7808
ਬ	-7809
ਾ	-7810
ੀ	-7811
ੰ	-7812
ગ	-7813
જ	-7814
ત	-7815
ર	-7816
ા	-7817
ી	-7818
ુ	-7819
த	-7820
ம	-7821
ழ	-7822
ி	-7823
்	-7824
ං	-7825
ල	-7826
ස	-7827
හ	-7828
ි	-7829
ท	-7830
ภ	-7831
ย	-7832
ษ	-7833
ไ	-7834
န	-7835
ဘ	-7836
သ	-7837
်	-7838
ြ	-7839
ე	-7840
თ	-7841
ი	-7842
ნ	-7843
რ	-7844
უ	-7845
ქ	-7846
ማ	-7847
ር	-7848
ኛ	-7849
አ	-7850
ḷ	-7851
ṁ	-7852
ṭ	-7853
ấ	-7854
ế	-7855
ệ	-7856
›	-7857
₹	-7858
∄	-7859
∑	-7860
√	-7861
∝	-7862
∧	-7863
∨	-7864
⊥	-7865
⋮	-7866
▾	-7867
◡	-7868
◻	-7869
☙	-7870
⛽	-7871
✌	-7872
✖	-7873
❤	-7874
➤	-7875
⟺	-7876
ⴰ	-7877
ⵉ	-7878
ⵜ	-7879
ⵟ	-7880
ⵡ	-7881
ち	-7882
な	-7883
ま	-7884
万	-7885
下	-7886
与	-7887
世	-7888
乔	-7889
九	-7890
争	-7891
二	-7892
享	-7893
仁	-7894
今	-7895
他	-7896
会	-7897
作	-7898
党	-7899
八	-7900
公	-7901
击	-7902
分	-7903
前	-7904
十	-7905
卿	-7906
原	-7907
友	-7908
台	-7909
同	-7910
呈	-7911
和	-7912
員	-7913
問	-7914
坂	-7915
委	-7916
子	-7917
孙	-7918
宋	-7919
宝	-7920
崇	-7921
川	-7922
幕	-7923
府	-7924
庫	-7925
弁	-7926
御	-7927
志	-7928
我	-7929
所	-7930
教	-7931
方	-7932
昌	-7933
星	-7934
書	-7935
朋	-7936
木	-7937
条	-7938
查	-7939
标	-7940
民	-7941
永	-7942
池	-7943
治	-7944
灣	-7945
火	-7946
点	-7947
王	-7948
用	-7949
盟	-7950
看	-7951
种	-7952
科	-7953
立	-7954
简	-7955
精	-7956
系	-7957
給	-7958
耕	-7959
聯	-7960
能	-7961
自	-7962
莫	-7963
蕃	-7964
藤	-7965
製	-7966
親	-7967
解	-7968
言	-7969
许	-7970
郎	-7971
野	-7972
院	-7973
雇	-7974
面	-7975
頁	-7976
駅	-7977
	-7978
🇮	-7979
🇹	-7980
🌧	-7981
🍁	-7982
🏼	-7983
🐘	-7984
🐧	-7985
👫	-7986
💀	-7987
💁	-7988
💖	-7989
💜	-7990
🔥	-7991
😅	-7992
🚃	-7993
🥶	-7994
🦁	-7995
